<PAD>	0
<UNK>	0
<SOS>	0
<EOS>	0
▁e	-0
▁a	-1
er	-2
▁d	-3
▁p	-4
ar	-5
▁c	-6
en	-7
▁l	-8
st	-9
ue	-10
os	-11
▁s	-12
▁m	-13
▁de	-14
om	-15
▁t	-16
▁q	-17
as	-18
do	-19
▁T	-20
an	-21
es	-22
on	-23
un	-24
or	-25
▁que	-26
▁n	-27
▁h	-28
▁Tom	-29
▁E	-30
▁est	-31
▁es	-32
re	-33
▁¿	-34
▁v	-35
▁un	-36
▁en	-37
ab	-38
▁la	-39
ci	-40
▁el	-41
ad	-42
te	-43
in	-44
▁N	-45
▁no	-46
▁f	-47
ía	-48
ien	-49
al	-50
▁M	-51
am	-52
▁con	-53
to	-54
ui	-55
▁No	-56
▁se	-57
ado	-58
ro	-59
▁b	-60
le	-61
ra	-62
▁al	-63
la	-64
ch	-65
▁g	-66
▁ha	-67
▁El	-68
▁L	-69
ta	-70
▁me	-71
go	-72
▁su	-73
ón	-74
de	-75
ás	-76
ir	-77
▁S	-78
ol	-79
▁com	-80
▁lo	-81
ic	-82
▁par	-83
ie	-84
▁mu	-85
ero	-86
▁una	-87
is	-88
ué	-89
mp	-90
▁Est	-91
aba	-92
oy	-93
ente	-94
di	-95
▁está	-96
▁por	-97
▁y	-98
▁o	-99
▁le	-100
lo	-101
ando	-102
▁A	-103
da	-104
res	-105
ec	-106
▁Mar	-107
ri	-108
▁hab	-109
▁P	-110
▁re	-111
▁te	-112
▁di	-113
▁É	-114
uer	-115
ust	-116
▁Él	-117
mos	-118
▁in	-119
ti	-120
▁Mary	-121
▁Es	-122
▁para	-123
jo	-124
▁to	-125
▁los	-126
cu	-127
▁mi	-128
▁hac	-129
▁qui	-130
▁cu	-131
vi	-132
dad	-133
ada	-134
▁pue	-135
▁Me	-136
▁tu	-137
▁más	-138
tr	-139
▁C	-140
▁vi	-141
▁D	-142
▁ten	-143
▁per	-144
ent	-145
▁H	-146
▁las	-147
gu	-148
ca	-149
se	-150
▁tien	-151
▁Ella	-152
▁cas	-153
mo	-154
ran	-155
▁La	-156
▁qué	-157
co	-158
▁i	-159
▁po	-160
▁si	-161
me	-162
era	-163
amos	-164
ción	-165
▁gust	-166
cho	-167
▁hacer	-168
▁tr	-169
tar	-170
ma	-171
iemp	-172
ste	-173
▁des	-174
▁ver	-175
ana	-176
▁ac	-177
▁pro	-178
sta	-179
gun	-180
▁pre	-181
Qui	-182
mi	-183
bre	-184
▁muy	-185
▁ve	-186
▁Y	-187
▁j	-188
vo	-189
li	-190
qu	-191
eces	-192
bi	-193
án	-194
▁hi	-195
dos	-196
▁sab	-197
añ	-198
▁del	-199
lar	-200
▁li	-201
▁comp	-202
és	-203
us	-204
quí	-205
Qué	-206
▁pas	-207
ora	-208
▁r	-209
▁é	-210
▁pe	-211
▁tiene	-212
ías	-213
ay	-214
ve	-215
tos	-216
▁co	-217
▁ex	-218
dar	-219
ver	-220
▁casa	-221
én	-222
▁V	-223
los	-224
▁aquí	-225
▁eso	-226
che	-227
▁ir	-228
▁ser	-229
pi	-230
▁lle	-231
emos	-232
▁ay	-233
▁tan	-234
▁an	-235
tes	-236
▁traba	-237
pa	-238
▁esta	-239
▁fue	-240
gar	-241
▁estaba	-242
▁Ten	-243
▁él	-244
▁fa	-245
des	-246
que	-247
ber	-248
▁Yo	-249
▁he	-250
▁esc	-251
▁como	-252
▁De	-253
vor	-254
▁nue	-255
per	-256
▁son	-257
▁ca	-258
ens	-259
▁quier	-260
▁cam	-261
▁favor	-262
iempo	-263
io	-264
ico	-265
▁sal	-266
ecesi	-267
▁ll	-268
▁algo	-269
▁tiempo	-270
▁gusta	-271
uen	-272
za	-273
Cu	-274
▁ap	-275
▁Estoy	-276
amente	-277
▁so	-278
oso	-279
▁sol	-280
erm	-281
der	-282
ce	-283
mente	-284
▁Mi	-285
iendo	-286
▁pa	-287
qui	-288
dr	-289
ble	-290
tas	-291
▁pr	-292
tra	-293
ten	-294
▁ab	-295
ante	-296
▁mis	-297
mas	-298
▁To	-299
▁ni	-300
ga	-301
▁ayu	-302
tu	-303
ica	-304
▁bien	-305
▁este	-306
▁Qui	-307
cion	-308
si	-309
▁buen	-310
ún	-311
ño	-312
ano	-313
▁nada	-314
cia	-315
▁car	-316
▁todo	-317
zo	-318
▁mucho	-319
Por	-320
ños	-321
▁vez	-322
▁estu	-323
▁deci	-324
▁res	-325
jar	-326
tó	-327
▁cre	-328
ter	-329
ja	-330
fi	-331
▁Los	-332
ómo	-333
▁as	-334
▁puedo	-335
▁lib	-336
▁enc	-337
▁can	-338
sto	-339
▁era	-340
las	-341
je	-342
▁ah	-343
▁¡	-344
ónde	-345
adre	-346
unca	-347
▁esto	-348
▁compr	-349
▁U	-350
▁Se	-351
▁B	-352
▁quer	-353
▁va	-354
añana	-355
▁tar	-356
▁imp	-357
pe	-358
▁Tengo	-359
▁estar	-360
ido	-361
▁pregun	-362
▁ar	-363
▁ven	-364
▁Quiero	-365
▁yo	-366
▁quiero	-367
inero	-368
▁ch	-369
▁cor	-370
▁puede	-371
▁tengo	-372
▁man	-373
▁trabajo	-374
ados	-375
ia	-376
ara	-377
▁dinero	-378
das	-379
▁dijo	-380
dió	-381
Cuán	-382
jor	-383
▁hablar	-384
▁cuando	-385
▁pi	-386
▁du	-387
▁hay	-388
▁Lo	-389
▁ti	-390
▁sus	-391
▁mañana	-392
adie	-393
▁ami	-394
eron	-395
▁mejor	-396
aría	-397
▁pero	-398
▁Te	-399
um	-400
▁dos	-401
▁fuer	-402
lan	-403
▁estoy	-404
par	-405
ros	-406
ost	-407
▁En	-408
va	-409
iempre	-410
▁Si	-411
ranc	-412
na	-413
ombre	-414
▁ba	-415
▁mí	-416
▁haber	-417
ión	-418
▁much	-419
▁todos	-420
▁Cre	-421
ece	-422
ren	-423
▁Le	-424
▁mal	-425
▁ella	-426
▁ci	-427
▁necesi	-428
▁men	-429
▁Tomás	-430
▁franc	-431
ino	-432
▁poco	-433
▁deber	-434
cil	-435
▁ro	-436
▁Por	-437
tros	-438
▁día	-439
▁Este	-440
▁esper	-441
▁pu	-442
▁tra	-443
oc	-444
▁francés	-445
▁libro	-446
▁están	-447
almente	-448
▁proble	-449
▁nos	-450
ven	-451
uste	-452
iento	-453
son	-454
▁ocu	-455
ontr	-456
▁J	-457
▁uste	-458
▁cal	-459
▁cer	-460
lí	-461
▁cos	-462
▁vol	-463
▁decir	-464
du	-465
▁gran	-466
▁quiere	-467
▁tom	-468
▁au	-469
▁ent	-470
▁Creo	-471
masi	-472
tro	-473
▁demasi	-474
▁llam	-475
▁emp	-476
po	-477
▁estudi	-478
▁verdad	-479
▁F	-480
able	-481
▁herm	-482
▁dis	-483
ru	-484
▁Ellos	-485
il	-486
aron	-487
pon	-488
Pue	-489
▁Su	-490
fer	-491
▁person	-492
▁Esta	-493
ento	-494
uel	-495
jos	-496
so	-497
▁sin	-498
den	-499
guien	-500
▁había	-501
br	-502
ame	-503
▁solo	-504
▁tarde	-505
no	-506
ita	-507
fici	-508
▁demasiado	-509
aré	-510
vía	-511
▁tres	-512
▁años	-513
ió	-514
▁hizo	-515
tado	-516
▁hace	-517
▁Eso	-518
▁ju	-519
endo	-520
▁encontr	-521
▁be	-522
▁antes	-523
ba	-524
▁sabe	-525
ort	-526
tor	-527
oston	-528
▁Boston	-529
▁sobre	-530
▁ayudar	-531
Est	-532
▁O	-533
▁comer	-534
▁sé	-535
▁María	-536
▁ahora	-537
▁nuest	-538
gr	-539
▁am	-540
orm	-541
▁padre	-542
▁escri	-543
les	-544
▁algun	-545
osotros	-546
ienes	-547
gos	-548
▁ma	-549
▁segu	-550
ina	-551
▁pens	-552
▁fe	-553
▁tenía	-554
rió	-555
▁mo	-556
▁estás	-557
ac	-558
▁Al	-559
▁noche	-560
gui	-561
gas	-562
▁lu	-563
ice	-564
▁quería	-565
Cómo	-566
dido	-567
Quién	-568
davía	-569
▁hora	-570
▁nunca	-571
ío	-572
ras	-573
▁siempre	-574
▁Pue	-575
▁pri	-576
éis	-577
▁ga	-578
Dónde	-579
▁Hay	-580
▁ese	-581
▁sent	-582
▁Necesi	-583
be	-584
▁usted	-585
▁perro	-586
dí	-587
jer	-588
ál	-589
▁sem	-590
▁Las	-591
▁R	-592
▁Sé	-593
uest	-594
gua	-595
▁reg	-596
▁ra	-597
▁rec	-598
Te	-599
idad	-600
tras	-601
▁coche	-602
▁estado	-603
dría	-604
▁vida	-605
▁inter	-606
▁Un	-607
enta	-608
No	-609
▁mes	-610
▁nuevo	-611
▁ya	-612
▁esp	-613
▁hoy	-614
jó	-615
car	-616
▁Ya	-617
xi	-618
▁gente	-619
▁auto	-620
▁días	-621
tal	-622
▁Ha	-623
▁hecho	-624
ez	-625
▁prof	-626
▁nadie	-627
▁llev	-628
▁Esto	-629
anas	-630
▁hombre	-631
ena	-632
ul	-633
cha	-634
erto	-635
ono	-636
uela	-637
▁Todos	-638
▁hacerlo	-639
▁cómo	-640
▁mismo	-641
ario	-642
cio	-643
dio	-644
gún	-645
ida	-646
iene	-647
▁esa	-648
▁problema	-649
ará	-650
▁hasta	-651
gó	-652
▁Pens	-653
▁or	-654
ciones	-655
▁plan	-656
▁tú	-657
undo	-658
lla	-659
tent	-660
dó	-661
▁quieres	-662
ermin	-663
▁He	-664
▁ol	-665
arme	-666
▁gustaría	-667
▁Soy	-668
▁quién	-669
bo	-670
▁así	-671
ña	-672
lti	-673
▁cab	-674
▁ing	-675
▁puer	-676
▁Nunca	-677
▁parece	-678
liz	-679
ciendo	-680
▁bo	-681
▁dif	-682
im	-683
bol	-684
tido	-685
ur	-686
▁pol	-687
▁voy	-688
▁quedar	-689
▁soy	-690
▁otra	-691
▁habita	-692
▁ú	-693
▁pes	-694
▁debería	-695
▁Sol	-696
encia	-697
▁mundo	-698
nos	-699
aban	-700
▁semana	-701
▁fin	-702
▁Com	-703
▁cono	-704
onto	-705
▁Deber	-706
▁pon	-707
▁I	-708
gue	-709
▁tienes	-710
▁cosas	-711
▁ide	-712
▁madre	-713
▁pod	-714
▁allí	-715
▁habitación	-716
dia	-717
▁has	-718
cias	-719
▁saber	-720
▁Pensé	-721
ús	-722
ores	-723
▁puerta	-724
▁termin	-725
ció	-726
▁ne	-727
rante	-728
▁prim	-729
▁dónde	-730
leg	-731
tamente	-732
▁mar	-733
▁niños	-734
▁min	-735
▁bus	-736
▁escuela	-737
▁habl	-738
▁comprar	-739
ués	-740
▁puedes	-741
▁vas	-742
van	-743
Cuál	-744
▁apren	-745
ili	-746
▁dejar	-747
ápi	-748
▁mon	-749
▁amigos	-750
rr	-751
vir	-752
migo	-753
pués	-754
▁olvi	-755
▁seguro	-756
ícil	-757
▁fuera	-758
▁oí	-759
▁us	-760
▁equi	-761
▁difícil	-762
gado	-763
▁op	-764
▁clas	-765
▁pasado	-766
▁Par	-767
▁pal	-768
▁escu	-769
erte	-770
▁"	-771
▁entr	-772
▁profes	-773
ocu	-774
▁Esp	-775
▁alguien	-776
▁Necesito	-777
▁sabía	-778
tir	-779
ís	-780
lic	-781
ían	-782
▁agua	-783
▁cambi	-784
▁fr	-785
udad	-786
▁fie	-787
uerdo	-788
▁últi	-789
ár	-790
▁Nadie	-791
▁menos	-792
ales	-793
dente	-794
▁ayuda	-795
▁hor	-796
▁veces	-797
▁ciudad	-798
▁uno	-799
▁Está	-800
vis	-801
▁ocup	-802
▁Tu	-803
▁otro	-804
▁Nos	-805
▁Eres	-806
▁mujer	-807
▁tus	-808
▁idea	-809
▁feliz	-810
sa	-811
▁Ah	-812
té	-813
ces	-814
▁ob	-815
unto	-816
tió	-817
arte	-818
▁Solo	-819
▁Cu	-820
▁buena	-821
▁G	-822
▁ayer	-823
osi	-824
uso	-825
lés	-826
dado	-827
lé	-828
rec	-829
▁Di	-830
▁cin	-831
▁llegar	-832
osa	-833
▁pien	-834
▁Voy	-835
Cuándo	-836
▁intent	-837
▁sue	-838
▁hici	-839
▁dio	-840
▁nosotros	-841
▁caf	-842
▁niño	-843
▁comida	-844
▁hu	-845
▁inglés	-846
▁nin	-847
▁pronto	-848
▁volver	-849
cado	-850
Me	-851
▁may	-852
▁tam	-853
antes	-854
▁exp	-855
Es	-856
ap	-857
▁Q	-858
▁conmigo	-859
▁mir	-860
▁fá	-861
▁vuel	-862
▁bi	-863
▁ahí	-864
ólo	-865
▁rápi	-866
▁año	-867
▁tele	-868
▁condu	-869
▁visto	-870
De	-871
cas	-872
zón	-873
demos	-874
▁Ahora	-875
▁lun	-876
Puedo	-877
▁conti	-878
▁Tenemos	-879
▁café	-880
▁nombre	-881
pue	-882
▁Todo	-883
▁na	-884
ones	-885
▁contigo	-886
▁Des	-887
▁mie	-888
▁acer	-889
▁vino	-890
▁personas	-891
▁her	-892
▁amigo	-893
▁tener	-894
▁Hab	-895
iente	-896
▁creo	-897
▁interes	-898
▁temp	-899
Quier	-900
zar	-901
▁después	-902
dir	-903
▁fam	-904
▁persona	-905
▁hermano	-906
▁haciendo	-907
▁die	-908
▁fal	-909
▁discu	-910
▁fiesta	-911
▁empez	-912
▁leer	-913
lig	-914
▁err	-915
▁tanto	-916
▁alguna	-917
▁levan	-918
▁sea	-919
▁cans	-920
▁famili	-921
▁desde	-922
▁sufici	-923
pren	-924
▁gan	-925
▁podría	-926
oh	-927
▁inc	-928
▁bueno	-929
udo	-930
▁ún	-931
bién	-932
▁preocu	-933
ohn	-934
▁cui	-935
▁John	-936
▁conse	-937
▁tren	-938
ne	-939
▁acci	-940
sti	-941
▁mayor	-942
ér	-943
▁escuch	-944
▁fácil	-945
▁cuenta	-946
▁Con	-947
jas	-948
▁cul	-949
Cuánto	-950
▁conoc	-951
▁salir	-952
▁suficiente	-953
▁eres	-954
▁invi	-955
arse	-956
▁sor	-957
▁pad	-958
▁entre	-959
omb	-960
ome	-961
▁Hoy	-962
▁les	-963
▁os	-964
vió	-965
▁pres	-966
▁libros	-967
▁mom	-968
▁casi	-969
▁durante	-970
bes	-971
▁dice	-972
▁impor	-973
▁cuán	-974
▁cama	-975
▁lugar	-976
ral	-977
▁podía	-978
▁carta	-979
▁nad	-980
▁vis	-981
▁minu	-982
iste	-983
llos	-984
▁ad	-985
▁palab	-986
▁todas	-987
▁Espero	-988
▁Tienes	-989
▁profesor	-990
Estás	-991
▁clase	-992
▁peque	-993
▁fo	-994
Po	-995
▁coci	-996
icía	-997
▁dorm	-998
▁toda	-999
▁gustan	-1000
▁enten	-1001
▁muchos	-1002
▁padres	-1003
ote	-1004
guir	-1005
icos	-1006
mple	-1007
▁pla	-1008
quier	-1009
▁Ese	-1010
Sab	-1011
oria	-1012
▁enf	-1013
adas	-1014
▁import	-1015
▁todavía	-1016
▁encan	-1017
mb	-1018
▁jue	-1019
fono	-1020
isa	-1021
entes	-1022
▁Tú	-1023
▁ense	-1024
▁grande	-1025
bir	-1026
▁dar	-1027
▁lunes	-1028
jado	-1029
alo	-1030
▁telé	-1031
▁problemas	-1032
▁pie	-1033
▁momento	-1034
▁come	-1035
stante	-1036
▁enfer	-1037
▁mucha	-1038
▁jo	-1039
▁trabajar	-1040
▁In	-1041
▁rápido	-1042
ám	-1043
▁porque	-1044
▁teléfono	-1045
▁Re	-1046
▁hist	-1047
gn	-1048
anos	-1049
▁jun	-1050
Tienes	-1051
▁encontrar	-1052
▁ta	-1053
▁pasó	-1054
vos	-1055
▁Vi	-1056
▁inf	-1057
▁vie	-1058
▁sido	-1059
▁accidente	-1060
▁vay	-1061
▁via	-1062
▁extra	-1063
▁siento	-1064
▁Estamos	-1065
▁Deberías	-1066
ortun	-1067
▁Ay	-1068
▁Fue	-1069
verdad	-1070
Quieres	-1071
zó	-1072
Puedes	-1073
▁ellos	-1074
▁habla	-1075
olor	-1076
▁lla	-1077
▁tomar	-1078
▁Estaba	-1079
▁familia	-1080
lado	-1081
▁hijo	-1082
▁vent	-1083
▁vivir	-1084
▁también	-1085
gan	-1086
▁cerca	-1087
▁joven	-1088
▁Cuando	-1089
zco	-1090
racias	-1091
▁policía	-1092
ari	-1093
▁realmente	-1094
▁gu	-1095
▁capa	-1096
cir	-1097
▁dic	-1098
▁pasa	-1099
▁hermana	-1100
▁ce	-1101
eras	-1102
▁Siempre	-1103
▁jugar	-1104
▁respon	-1105
ecto	-1106
▁tienen	-1107
▁acerca	-1108
▁Todavía	-1109
▁agr	-1110
▁horas	-1111
▁bastante	-1112
entro	-1113
▁acuerdo	-1114
▁1	-1115
cer	-1116
▁don	-1117
▁miedo	-1118
llo	-1119
▁dormir	-1120
can	-1121
ger	-1122
▁qu	-1123
▁muchas	-1124
▁televis	-1125
bió	-1126
▁Esa	-1127
▁cosa	-1128
por	-1129
dé	-1130
dico	-1131
▁reun	-1132
▁sec	-1133
tando	-1134
▁país	-1135
▁venir	-1136
▁nuestra	-1137
▁val	-1138
▁tuvo	-1139
▁puso	-1140
▁contra	-1141
cido	-1142
▁nuestro	-1143
ró	-1144
▁bol	-1145
▁gato	-1146
guna	-1147
tón	-1148
▁ban	-1149
▁cada	-1150
▁mano	-1151
via	-1152
icas	-1153
tivo	-1154
▁mús	-1155
▁sen	-1156
▁diez	-1157
▁mesa	-1158
▁pelí	-1159
▁pudo	-1160
▁pregunta	-1161
▁pelícu	-1162
▁lar	-1163
▁dejó	-1164
▁parec	-1165
▁tempran	-1166
orma	-1167
osible	-1168
apón	-1169
▁razón	-1170
▁historia	-1171
▁fl	-1172
ador	-1173
▁han	-1174
▁hubi	-1175
▁temprano	-1176
Has	-1177
▁der	-1178
▁dicho	-1179
año	-1180
▁sí	-1181
▁pelo	-1182
▁Japón	-1183
leta	-1184
▁fun	-1185
cando	-1186
▁pasar	-1187
▁cual	-1188
cost	-1189
▁cabe	-1190
▁parte	-1191
gra	-1192
▁visi	-1193
▁vive	-1194
▁estaban	-1195
▁ley	-1196
▁consi	-1197
▁nadar	-1198
▁aprender	-1199
ré	-1200
▁za	-1201
▁Pre	-1202
▁som	-1203
ustral	-1204
▁bar	-1205
▁llor	-1206
▁zapa	-1207
▁murió	-1208
tin	-1209
▁arre	-1210
▁donde	-1211
tura	-1212
▁beb	-1213
tamos	-1214
abas	-1215
▁llo	-1216
▁ocupado	-1217
át	-1218
▁Mu	-1219
alidad	-1220
fe	-1221
▁equivo	-1222
ustralia	-1223
▁Australia	-1224
pen	-1225
puesta	-1226
▁menudo	-1227
▁acost	-1228
▁necesita	-1229
tran	-1230
drías	-1231
quiera	-1232
▁creer	-1233
▁mé	-1234
ientes	-1235
▁enseñ	-1236
ría	-1237
▁reci	-1238
ll	-1239
▁tenemos	-1240
anto	-1241
▁importante	-1242
ientras	-1243
▁última	-1244
▁televisión	-1245
ves	-1246
▁rom	-1247
▁dije	-1248
▁Parece	-1249
▁fui	-1250
arto	-1251
▁pin	-1252
▁tipo	-1253
▁pidió	-1254
▁alm	-1255
cep	-1256
chos	-1257
▁Una	-1258
▁alto	-1259
▁hijos	-1260
▁esperar	-1261
▁estamos	-1262
▁estación	-1263
▁pró	-1264
▁conf	-1265
cic	-1266
▁mor	-1267
▁camino	-1268
▁cansado	-1269
▁minutos	-1270
▁ter	-1271
▁música	-1272
▁zapatos	-1273
if	-1274
erta	-1275
sión	-1276
▁poner	-1277
▁fuerte	-1278
ge	-1279
▁ja	-1280
▁Ayer	-1281
▁próxi	-1282
drá	-1283
arlo	-1284
▁rep	-1285
▁dese	-1286
▁ofici	-1287
▁ech	-1288
▁frío	-1289
▁prepar	-1290
▁Po	-1291
▁lado	-1292
▁camin	-1293
▁extran	-1294
▁ustedes	-1295
▁tal	-1296
▁sorpren	-1297
▁Ven	-1298
pital	-1299
▁prob	-1300
▁fu	-1301
taba	-1302
▁hue	-1303
▁juntos	-1304
▁importa	-1305
illo	-1306
▁dij	-1307
▁ham	-1308
▁Nuest	-1309
▁estudiar	-1310
▁da	-1311
Sabes	-1312
▁apar	-1313
▁agrad	-1314
▁algún	-1315
▁cinco	-1316
▁acab	-1317
▁aque	-1318
▁pá	-1319
▁vo	-1320
▁tri	-1321
▁viene	-1322
▁podemos	-1323
▁preguntó	-1324
▁ár	-1325
▁limp	-1326
▁ventana	-1327
▁Puede	-1328
gi	-1329
adu	-1330
dor	-1331
▁Lle	-1332
▁compró	-1333
▁perder	-1334
▁preocup	-1335
tí	-1336
rob	-1337
tan	-1338
▁rob	-1339
▁Aquí	-1340
▁pare	-1341
▁sola	-1342
éj	-1343
▁ri	-1344
▁Puedes	-1345
00	-1346
ya	-1347
▁vio	-1348
▁unos	-1349
▁comen	-1350
ist	-1351
▁fum	-1352
cicleta	-1353
▁af	-1354
áis	-1355
jero	-1356
▁gol	-1357
▁nie	-1358
▁error	-1359
uelo	-1360
legio	-1361
▁debe	-1362
▁reunión	-1363
tera	-1364
▁hice	-1365
▁medi	-1366
idos	-1367
▁aún	-1368
▁Quer	-1369
▁prest	-1370
▁colegio	-1371
▁mientras	-1372
▁película	-1373
ea	-1374
Hay	-1375
ayun	-1376
▁ocur	-1377
▁diver	-1378
▁único	-1379
▁escribir	-1380
ito	-1381
▁corr	-1382
▁pueden	-1383
amento	-1384
▁confi	-1385
▁difer	-1386
uido	-1387
▁oír	-1388
▁deberías	-1389
▁foto	-1390
▁árbol	-1391
lares	-1392
▁Uste	-1393
▁queda	-1394
ensa	-1395
▁Sab	-1396
▁escon	-1397
▁primera	-1398
▁buscando	-1399
▁hablando	-1400
vidad	-1401
▁cons	-1402
▁ojos	-1403
▁az	-1404
▁ano	-1405
▁dej	-1406
▁dist	-1407
▁homb	-1408
▁cabeza	-1409
▁trabaj	-1410
▁entender	-1411
▁bicicleta	-1412
▁estudiantes	-1413
▁sa	-1414
▁vest	-1415
▁dolor	-1416
▁leche	-1417
zado	-1418
▁manz	-1419
▁punto	-1420
En	-1421
loj	-1422
var	-1423
ormi	-1424
▁col	-1425
bamos	-1426
▁edad	-1427
▁esposa	-1428
▁oficina	-1429
omin	-1430
▁Per	-1431
olver	-1432
▁atra	-1433
▁sólo	-1434
▁reloj	-1435
▁esperando	-1436
sas	-1437
▁Na	-1438
siera	-1439
▁salu	-1440
▁comple	-1441
▁ace	-1442
▁cerr	-1443
▁Puedo	-1444
▁nueva	-1445
▁tocar	-1446
▁resul	-1447
trás	-1448
▁bes	-1449
▁ido	-1450
▁pan	-1451
▁pagar	-1452
▁tenis	-1453
▁estuvo	-1454
▁ningún	-1455
umbr	-1456
▁desayun	-1457
▁tre	-1458
▁respuesta	-1459
cidad	-1460
▁ganas	-1461
▁llave	-1462
eo	-1463
ion	-1464
▁tor	-1465
▁sueño	-1466
▁viejo	-1467
▁perdido	-1468
▁conducir	-1469
mero	-1470
▁autob	-1471
▁dormi	-1472
▁pueda	-1473
▁Ac	-1474
▁Son	-1475
▁sac	-1476
▁direc	-1477
▁Fui	-1478
▁caja	-1479
▁hacia	-1480
tención	-1481
▁necesito	-1482
▁acostumbr	-1483
jal	-1484
gando	-1485
▁japon	-1486
▁propi	-1487
lu	-1488
Tom	-1489
tad	-1490
▁nú	-1491
▁llegó	-1492
vas	-1493
cios	-1494
▁calle	-1495
▁enfad	-1496
▁médico	-1497
usto	-1498
gamos	-1499
ciente	-1500
▁Tiene	-1501
llas	-1502
▁gra	-1503
diendo	-1504
▁verte	-1505
▁canción	-1506
▁funcion	-1507
▁dó	-1508
▁bor	-1509
▁hos	-1510
tener	-1511
▁Estu	-1512
▁anim	-1513
▁orden	-1514
▁quien	-1515
▁doc	-1516
▁len	-1517
▁mole	-1518
▁domin	-1519
▁anoche	-1520
▁Alguien	-1521
▁blan	-1522
▁pudi	-1523
▁misma	-1524
▁secre	-1525
▁fueron	-1526
▁autobús	-1527
▁palabra	-1528
atro	-1529
inta	-1530
ación	-1531
▁ropa	-1532
▁será	-1533
▁sabes	-1534
▁hubiera	-1535
▁cualquier	-1536
▁dur	-1537
uerra	-1538
▁Gracias	-1539
gió	-1540
▁cen	-1541
▁gen	-1542
▁río	-1543
▁Sólo	-1544
▁oído	-1545
▁cocin	-1546
▁media	-1547
▁encanta	-1548
."	-1549
cri	-1550
str	-1551
jalá	-1552
▁usar	-1553
▁permi	-1554
úpi	-1555
▁aver	-1556
▁lejos	-1557
▁lleva	-1558
▁mío	-1559
▁haga	-1560
▁seis	-1561
▁Estás	-1562
▁chico	-1563
▁pedir	-1564
▁estuvi	-1565
▁verano	-1566
Al	-1567
Con	-1568
▁avi	-1569
▁exam	-1570
viendo	-1571
▁compañ	-1572
▁manera	-1573
▁Debería	-1574
▁interesante	-1575
ló	-1576
▁hote	-1577
▁fumar	-1578
▁conven	-1579
lá	-1580
años	-1581
▁Era	-1582
▁cara	-1583
▁cost	-1584
▁manos	-1585
▁perros	-1586
▁hospital	-1587
ír	-1588
▁cierto	-1589
iso	-1590
bido	-1591
▁bajo	-1592
▁cuarto	-1593
▁estúpi	-1594
olu	-1595
guas	-1596
▁cám	-1597
▁deb	-1598
▁gui	-1599
ordar	-1600
▁bebé	-1601
▁enam	-1602
▁estos	-1603
▁vista	-1604
▁número	-1605
qué	-1606
▁br	-1607
▁capaz	-1608
▁tienda	-1609
▁diccion	-1610
▁pregunto	-1611
▁Déj	-1612
▁pensar	-1613
▁Navidad	-1614
▁preguntas	-1615
pas	-1616
▁té	-1617
graf	-1618
taron	-1619
▁cree	-1620
▁dere	-1621
▁Ojalá	-1622
▁forma	-1623
▁listo	-1624
▁quedó	-1625
oma	-1626
erno	-1627
▁hotel	-1628
Le	-1629
yo	-1630
Cre	-1631
▁enamor	-1632
▁dólares	-1633
Está	-1634
▁noti	-1635
▁crees	-1636
▁falta	-1637
▁correc	-1638
cos	-1639
ñas	-1640
▁Comp	-1641
▁esté	-1642
▁resp	-1643
▁chica	-1644
▁explic	-1645
▁algunos	-1646
eno	-1647
tis	-1648
cial	-1649
▁iba	-1650
▁Debes	-1651
▁hermos	-1652
▁parque	-1653
adamente	-1654
▁conozco	-1655
adien	-1656
▁Para	-1657
▁corre	-1658
▁cámara	-1659
▁algunas	-1660
▁canadien	-1661
▁gr	-1662
erra	-1663
▁abs	-1664
▁dir	-1665
▁hija	-1666
▁beber	-1667
▁examen	-1668
▁hiciste	-1669
▁ninguna	-1670
▁diccionario	-1671
pó	-1672
iver	-1673
▁luz	-1674
▁oscu	-1675
▁cabal	-1676
▁vuest	-1677
▁entrar	-1678
▁Mis	-1679
▁acep	-1680
▁encu	-1681
▁poder	-1682
▁cru	-1683
▁evi	-1684
▁rico	-1685
▁Algun	-1686
▁salió	-1687
▁cumple	-1688
one	-1689
tri	-1690
▁Deja	-1691
▁suce	-1692
▁avión	-1693
▁doctor	-1694
▁hambre	-1695
▁regalo	-1696
ale	-1697
▁jar	-1698
▁vaca	-1699
▁Esper	-1700
▁emple	-1701
▁pelig	-1702
▁prome	-1703
▁vamos	-1704
Cuántos	-1705
▁hombres	-1706
▁oportun	-1707
▁veo	-1708
▁desa	-1709
▁flores	-1710
▁posible	-1711
ini	-1712
▁dem	-1713
andon	-1714
▁aleg	-1715
▁malo	-1716
▁vaya	-1717
▁despi	-1718
▁libre	-1719
▁pequeño	-1720
▁Tr	-1721
▁dec	-1722
remos	-1723
▁clar	-1724
▁espe	-1725
▁most	-1726
▁pude	-1727
▁unas	-1728
▁Vamos	-1729
▁juego	-1730
▁guerra	-1731
▁consejo	-1732
▁enfermo	-1733
▁parecía	-1734
torio	-1735
▁pier	-1736
▁cerve	-1737
damente	-1738
▁muerte	-1739
▁terminar	-1740
bli	-1741
tio	-1742
▁fi	-1743
▁cri	-1744
▁ele	-1745
▁caus	-1746
ientos	-1747
▁Había	-1748
▁calor	-1749
▁salud	-1750
▁suerte	-1751
▁visitar	-1752
▁Ll	-1753
inci	-1754
tbol	-1755
▁duro	-1756
tiendo	-1757
▁desper	-1758
▁vestido	-1759
▁extranjero	-1760
▁oportunidad	-1761
có	-1762
▁bon	-1763
▁inte	-1764
▁realidad	-1765
▁abi	-1766
▁cie	-1767
▁gri	-1768
▁acon	-1769
▁quieras	-1770
▁bai	-1771
▁tuvi	-1772
▁despe	-1773
▁ruido	-1774
▁Quisiera	-1775
▁cumpleaños	-1776
ería	-1777
guió	-1778
▁culpa	-1779
▁tenido	-1780
▁Nosotros	-1781
gué	-1782
stos	-1783
▁exper	-1784
▁nieve	-1785
▁perdió	-1786
▁cuidado	-1787
ído	-1788
▁haya	-1789
▁univer	-1790
▁vuelta	-1791
▁cerveza	-1792
eros	-1793
rado	-1794
▁Haz	-1795
▁hagas	-1796
▁Estados	-1797
▁palabras	-1798
▁terminado	-1799
dida	-1800
▁agu	-1801
▁mer	-1802
iencia	-1803
▁banco	-1804
▁cantar	-1805
▁contar	-1806
▁llover	-1807
▁siquiera	-1808
▁vacaciones	-1809
▁u	-1810
mag	-1811
til	-1812
amás	-1813
▁idi	-1814
▁arro	-1815
▁otros	-1816
▁seguir	-1817
gro	-1818
▁Aún	-1819
▁ade	-1820
entos	-1821
▁solía	-1822
▁Unidos	-1823
▁cuándo	-1824
▁equipo	-1825
▁intelig	-1826
rí	-1827
stas	-1828
▁edi	-1829
▁van	-1830
onces	-1831
tento	-1832
uerda	-1833
▁Hace	-1834
▁lista	-1835
▁pensando	-1836
don	-1837
día	-1838
▁eng	-1839
dieron	-1840
▁descu	-1841
▁novia	-1842
ali	-1843
gnif	-1844
▁acá	-1845
▁apa	-1846
▁exac	-1847
▁niña	-1848
▁orgu	-1849
▁perf	-1850
▁llama	-1851
▁abandon	-1852
▁fú	-1853
▁cena	-1854
▁arreg	-1855
▁largo	-1856
▁monta	-1857
▁fútbol	-1858
▁regres	-1859
esa	-1860
omp	-1861
▁har	-1862
▁Cas	-1863
▁Tra	-1864
▁ment	-1865
▁medio	-1866
ama	-1867
dedor	-1868
▁abur	-1869
▁allá	-1870
▁escal	-1871
▁secreto	-1872
ici	-1873
▁Pas	-1874
▁due	-1875
dando	-1876
▁abri	-1877
▁lengua	-1878
media	-1879
uerzo	-1880
▁cuanto	-1881
▁guitar	-1882
▁puesto	-1883
▁treinta	-1884
ese	-1885
fico	-1886
▁abo	-1887
▁amor	-1888
urante	-1889
▁gatos	-1890
▁pájar	-1891
▁decisión	-1892
▁Que	-1893
▁vos	-1894
▁Pien	-1895
▁cocina	-1896
▁signif	-1897
▁inmedia	-1898
▁primero	-1899
▁preguntar	-1900
rir	-1901
▁sie	-1902
▁carne	-1903
▁viaje	-1904
▁llamar	-1905
▁llevar	-1906
▁Nuestro	-1907
▁extraño	-1908
▁canadiense	-1909
▁estudiante	-1910
▁z	-1911
▁cay	-1912
▁hum	-1913
▁llu	-1914
brero	-1915
▁Odio	-1916
▁rela	-1917
▁situ	-1918
▁hemos	-1919
▁princi	-1920
▁errores	-1921
▁bal	-1922
▁eno	-1923
ancia	-1924
▁Casi	-1925
▁tomó	-1926
miento	-1927
▁matar	-1928
▁empezó	-1929
▁dijiste	-1930
▁ho	-1931
Quer	-1932
▁entien	-1933
▁piensa	-1934
▁mujeres	-1935
yó	-1936
omos	-1937
▁bibli	-1938
▁piano	-1939
▁sitio	-1940
▁orgullos	-1941
Ten	-1942
dré	-1943
tud	-1944
▁Ni	-1945
▁lí	-1946
▁cora	-1947
▁conci	-1948
▁limpi	-1949
▁Déjame	-1950
▁Mañana	-1951
▁edifici	-1952
ablemente	-1953
▁bibliote	-1954
chas	-1955
ular	-1956
▁acu	-1957
▁tío	-1958
▁baño	-1959
▁caso	-1960
▁resta	-1961
▁tarea	-1962
▁aconse	-1963
▁asunto	-1964
▁trabaja	-1965
▁necesitas	-1966
eta	-1967
▁cue	-1968
▁san	-1969
▁cuch	-1970
▁tran	-1971
▁conoce	-1972
▁cuánto	-1973
▁montón	-1974
▁estabas	-1975
▁próximo	-1976
▁quieren	-1977
▁equivocado	-1978
▁completamente	-1979
▁As	-1980
anza	-1981
▁asi	-1982
▁bra	-1983
utado	-1984
▁bote	-1985
▁fuego	-1986
ire	-1987
vio	-1988
▁"¿	-1989
▁desc	-1990
▁eran	-1991
▁morir	-1992
▁camisa	-1993
▁biblioteca	-1994
dín	-1995
▁Dis	-1996
▁ale	-1997
▁sos	-1998
fiero	-1999
▁Dame	-2000
▁anci	-2001
▁loco	-2002
▁mala	-2003
▁nego	-2004
▁justo	-2005
osotras	-2006
▁discul	-2007
▁cambiar	-2008
▁peligro	-2009
▁atención	-2010
▁compañía	-2011
30	-2012
stru	-2013
▁Pon	-2014
diste	-2015
▁ello	-2016
▁opin	-2017
▁vari	-2018
▁golpe	-2019
amiento	-2020
▁jardín	-2021
?"	-2022
bl	-2023
cel	-2024
Eres	-2025
culo	-2026
▁lin	-2027
▁Tuve	-2028
▁pape	-2029
▁ganar	-2030
▁super	-2031
Podrías	-2032
▁conver	-2033
▁sentido	-2034
▁entiendo	-2035
▁sombrero	-2036
tic	-2037
tico	-2038
▁éxi	-2039
▁llue	-2040
▁pele	-2041
▁conta	-2042
▁famos	-2043
▁llorar	-2044
▁guitarra	-2045
▁levantar	-2046
▁gal	-2047
▁elec	-2048
▁nove	-2049
▁Usted	-2050
▁mensa	-2051
▁primer	-2052
▁universi	-2053
▁situación	-2054
bu	-2055
dan	-2056
▁rad	-2057
ienen	-2058
tados	-2059
▁almor	-2060
▁éxito	-2061
▁volvió	-2062
▁edificio	-2063
▁escuchar	-2064
▁trabajando	-2065
mon	-2066
▁Ve	-2067
cina	-2068
▁taza	-2069
▁comió	-2070
▁sería	-2071
▁somos	-2072
▁cuatro	-2073
▁lluvia	-2074
▁dormido	-2075
▁esperaba	-2076
▁Ano	-2077
▁imag	-2078
▁Somos	-2079
▁blanco	-2080
▁decidió	-2081
▁encontró	-2082
dic	-2083
fri	-2084
tre	-2085
zas	-2086
▁Pr	-2087
▁inv	-2088
Crees	-2089
▁única	-2090
▁vosotros	-2091
▁computado	-2092
▁conseguir	-2093
▁restaurante	-2094
fru	-2095
mer	-2096
▁do	-2097
illa	-2098
ridad	-2099
▁vivo	-2100
tación	-2101
▁clases	-2102
▁dentro	-2103
▁Rec	-2104
▁alre	-2105
▁ases	-2106
▁guar	-2107
▁pase	-2108
▁cenar	-2109
▁final	-2110
▁Pienso	-2111
▁huevos	-2112
▁caminar	-2113
▁divertido	-2114
▁Sal	-2115
▁igu	-2116
▁neces	-2117
▁bailar	-2118
▁mentir	-2119
▁muerto	-2120
rá	-2121
aran	-2122
▁aire	-2123
▁pena	-2124
▁playa	-2125
▁leyendo	-2126
▁ayudarte	-2127
▁exactamente	-2128
cen	-2129
▁je	-2130
resa	-2131
▁mía	-2132
pongo	-2133
▁esca	-2134
▁perm	-2135
▁abrir	-2136
▁barco	-2137
▁confiar	-2138
▁pequeña	-2139
▁estúpido	-2140
ori	-2141
omas	-2142
tica	-2143
▁Deb	-2144
▁bil	-2145
▁cayó	-2146
▁último	-2147
▁jugando	-2148
▁pasando	-2149
len	-2150
pió	-2151
▁Ch	-2152
▁lá	-2153
▁ins	-2154
lidad	-2155
▁suel	-2156
▁piensas	-2157
▁animales	-2158
Se	-2159
▁boca	-2160
▁norm	-2161
▁duele	-2162
▁frente	-2163
▁pasada	-2164
▁alrededor	-2165
▁dirección	-2166
▁inteligente	-2167
est	-2168
rido	-2169
▁Man	-2170
▁Sus	-2171
▁béis	-2172
puesto	-2173
▁estas	-2174
▁Quería	-2175
▁descan	-2176
▁llegue	-2177
▁béisbol	-2178
eció	-2179
pacio	-2180
▁Hemos	-2181
▁asust	-2182
▁debes	-2183
▁estre	-2184
▁regal	-2185
▁comido	-2186
▁abogado	-2187
▁deberes	-2188
▁responder	-2189
uera	-2190
▁emb	-2191
▁gua	-2192
▁haré	-2193
▁Están	-2194
▁segun	-2195
▁habría	-2196
▁triste	-2197
gir	-2198
caso	-2199
tuvo	-2200
▁Qué	-2201
rible	-2202
▁Acab	-2203
▁amar	-2204
▁peor	-2205
▁haría	-2206
▁radio	-2207
▁estará	-2208
▁mensaje	-2209
bí	-2210
eme	-2211
rar	-2212
▁Sos	-2213
▁peso	-2214
▁tras	-2215
▁tradu	-2216
▁paraguas	-2217
▁suficientemente	-2218
rso	-2219
usi	-2220
lica	-2221
▁Tok	-2222
▁ene	-2223
▁fre	-2224
cción	-2225
▁Quiz	-2226
▁ladr	-2227
▁papel	-2228
▁absolu	-2229
▁llaves	-2230
pre	-2231
ches	-2232
▁irme	-2233
onozco	-2234
▁digas	-2235
▁empie	-2236
▁perió	-2237
▁produ	-2238
Cuántas	-2239
▁vendrá	-2240
▁opinión	-2241
▁encontré	-2242
▁favorito	-2243
▁resolver	-2244
amá	-2245
zos	-2246
▁Enc	-2247
▁debo	-2248
▁recu	-2249
▁llamó	-2250
▁siete	-2251
▁Compré	-2252
▁nuestros	-2253
▁recordar	-2254
▁concierto	-2255
ligr	-2256
segu	-2257
▁voz	-2258
Puede	-2259
▁pedí	-2260
▁pienso	-2261
▁rompió	-2262
▁manzana	-2263
▁ocurrió	-2264
▁comprado	-2265
To	-2266
orme	-2267
tiva	-2268
▁admi	-2269
▁taxi	-2270
▁Tokio	-2271
▁Estaré	-2272
▁conoci	-2273
▁molest	-2274
▁peligr	-2275
▁decirle	-2276
▁consider	-2277
▁imposible	-2278
▁intentando	-2279
Lo	-2280
bas	-2281
ervi	-2282
guno	-2283
▁fru	-2284
▁ren	-2285
▁sigue	-2286
▁abuelo	-2287
▁corazón	-2288
▁almuerzo	-2289
▁cuchillo	-2290
▁invierno	-2291
▁Realmente	-2292
▁peligroso	-2293
ueba	-2294
vimos	-2295
▁vaso	-2296
▁dispar	-2297
▁empezar	-2298
▁pensaba	-2299
▁terminó	-2300
▁Prefiero	-2301
▁Necesitamos	-2302
▁acostumbrado	-2303
ín	-2304
tur	-2305
▁Co	-2306
▁Cor	-2307
unque	-2308
▁cump	-2309
▁lago	-2310
▁rato	-2311
ilidad	-2312
▁Sabía	-2313
▁alcan	-2314
▁atrás	-2315
▁dejes	-2316
▁entró	-2317
▁haces	-2318
▁jamás	-2319
▁meses	-2320
▁Muchos	-2321
▁simple	-2322
▁aconsejó	-2323
▁caliente	-2324
cto	-2325
men	-2326
tén	-2327
uego	-2328
▁miró	-2329
▁fotos	-2330
cionado	-2331
▁entonces	-2332
▁universidad	-2333
gre	-2334
stim	-2335
vado	-2336
▁ado	-2337
▁tro	-2338
▁vac	-2339
lices	-2340
▁Como	-2341
▁actu	-2342
▁cine	-2343
▁jefe	-2344
▁rojo	-2345
▁Estos	-2346
▁aquel	-2347
▁sentó	-2348
▁serio	-2349
▁Anoche	-2350
▁siendo	-2351
▁mantener	-2352
▁estudiando	-2353
ios	-2354
bles	-2355
enas	-2356
inas	-2357
▁Dej	-2358
▁Ser	-2359
▁irse	-2360
▁polí	-2361
▁Tenía	-2362
▁Traba	-2363
▁acaba	-2364
▁cuesta	-2365
▁grandes	-2366
▁japonés	-2367
▁llevaba	-2368
▁montaña	-2369
▁ocupada	-2370
▁partido	-2371
▁próxima	-2372
▁diciendo	-2373
Ya	-2374
▁aus	-2375
▁def	-2376
▁fir	-2377
tería	-2378
▁alim	-2379
▁anti	-2380
▁prom	-2381
▁nervi	-2382
▁casado	-2383
▁chicos	-2384
▁Encontr	-2385
▁mayoría	-2386
▁pescado	-2387
▁deberíamos	-2388
▁oc	-2389
ecer	-2390
▁Emp	-2391
▁alta	-2392
▁apro	-2393
▁logr	-2394
▁veci	-2395
▁brazo	-2396
▁estés	-2397
▁vayas	-2398
▁evitar	-2399
▁minuto	-2400
▁venido	-2401
▁viajar	-2402
▁escribió	-2403
▁recuerdo	-2404
▁necesario	-2405
Tú	-2406
drás	-2407
úcar	-2408
▁odi	-2409
▁Cada	-2410
▁envi	-2411
▁sopor	-2412
▁azúcar	-2413
▁compar	-2414
▁compré	-2415
▁detrás	-2416
hi	-2417
vó	-2418
uro	-2419
▁of	-2420
▁pú	-2421
▁ves	-2422
damos	-2423
▁Dime	-2424
▁culp	-2425
▁bille	-2426
▁borra	-2427
▁saben	-2428
▁segura	-2429
▁gracias	-2430
▁corriendo	-2431
▁tir	-2432
dados	-2433
▁Debo	-2434
▁carro	-2435
▁color	-2436
▁suelo	-2437
▁viven	-2438
▁abrigo	-2439
▁abierta	-2440
▁hermosa	-2441
▁hiciera	-2442
▁comiendo	-2443
▁respecto	-2444
▁An	-2445
orte	-2446
▁ama	-2447
taría	-2448
uerto	-2449
▁cuál	-2450
▁duer	-2451
▁muer	-2452
▁solu	-2453
▁causa	-2454
▁depor	-2455
▁pensó	-2456
▁pobre	-2457
▁mirando	-2458
▁contento	-2459
▁funciona	-2460
▁escritorio	-2461
áb	-2462
bos	-2463
ura	-2464
ánd	-2465
▁cha	-2466
▁aero	-2467
▁ahor	-2468
▁cien	-2469
▁mane	-2470
▁obje	-2471
▁ocul	-2472
▁abrió	-2473
▁llega	-2474
▁negro	-2475
▁Después	-2476
▁Supongo	-2477
▁correcto	-2478
▁significa	-2479
ig	-2480
tá	-2481
Vas	-2482
entó	-2483
melo	-2484
tate	-2485
tero	-2486
entar	-2487
terna	-2488
▁deba	-2489
▁reco	-2490
▁tuve	-2491
▁decep	-2492
▁demás	-2493
▁plane	-2494
▁prote	-2495
▁afuera	-2496
▁amable	-2497
▁contin	-2498
▁helado	-2499
▁olvidó	-2500
▁felices	-2501
▁quedarse	-2502
▁queremos	-2503
dón	-2504
fas	-2505
ctor	-2506
gles	-2507
▁Les	-2508
quina	-2509
▁caro	-2510
▁enci	-2511
▁futu	-2512
▁toca	-2513
▁viol	-2514
▁acomp	-2515
▁aerop	-2516
▁común	-2517
▁lleno	-2518
▁satis	-2519
▁marido	-2520
▁llegado	-2521
▁pudiera	-2522
▁desayuno	-2523
▁hermanos	-2524
uta	-2525
▁cli	-2526
▁rar	-2527
cioso	-2528
medad	-2529
▁hago	-2530
▁sala	-2531
▁Acabo	-2532
▁parar	-2533
▁prisa	-2534
▁correr	-2535
▁cocinar	-2536
▁quedarme	-2537
aña	-2538
enes	-2539
tada	-2540
▁ata	-2541
▁pun	-2542
▁Mira	-2543
▁incl	-2544
Alguna	-2545
glesia	-2546
▁senti	-2547
▁trató	-2548
▁Debemos	-2549
▁paciente	-2550
gía	-2551
ine	-2552
▁Sin	-2553
▁ape	-2554
▁bas	-2555
Tiene	-2556
ender	-2557
▁Nada	-2558
▁arri	-2559
▁pueb	-2560
▁seas	-2561
miendo	-2562
▁cielo	-2563
▁silla	-2564
▁venga	-2565
▁dejado	-2566
▁espera	-2567
▁profun	-2568
▁reglas	-2569
▁derecho	-2570
▁siguien	-2571
▁manzanas	-2572
▁noticias	-2573
▁principi	-2574
▁aeropuerto	-2575
Ha	-2576
mát	-2577
▁Nin	-2578
▁dev	-2579
▁mue	-2580
▁señ	-2581
▁Dese	-2582
▁toma	-2583
Querés	-2584
▁Apren	-2585
▁pieza	-2586
▁quedé	-2587
▁verme	-2588
▁Intent	-2589
▁disfru	-2590
▁futuro	-2591
▁dientes	-2592
▁iglesia	-2593
▁periódico	-2594
ví	-2595
sar	-2596
ciar	-2597
lido	-2598
rate	-2599
▁Dios	-2600
▁sacó	-2601
▁vale	-2602
▁Ellas	-2603
▁averi	-2604
▁frecu	-2605
▁respe	-2606
▁perten	-2607
▁semanas	-2608
▁sentado	-2609
▁durmiendo	-2610
date	-2611
ques	-2612
▁Escu	-2613
▁cole	-2614
▁posi	-2615
▁vein	-2616
Podría	-2617
▁novio	-2618
▁distin	-2619
▁pueblo	-2620
▁Algunos	-2621
▁Ustedes	-2622
▁escrito	-2623
▁permitir	-2624
▁enfermedad	-2625
nas	-2626
▁gru	-2627
▁esos	-2628
▁hone	-2629
▁públ	-2630
▁igual	-2631
▁larga	-2632
▁llevó	-2633
▁cartas	-2634
▁impres	-2635
▁má	-2636
▁tí	-2637
arle	-2638
▁fra	-2639
▁gor	-2640
▁mad	-2641
▁Deci	-2642
aremos	-2643
▁clima	-2644
▁engañ	-2645
▁excep	-2646
▁Podría	-2647
▁llueve	-2648
▁quiera	-2649
▁resfri	-2650
▁viendo	-2651
eramente	-2652
▁arreglar	-2653
▁oy	-2654
ible	-2655
▁daño	-2656
▁pris	-2657
▁sopa	-2658
▁conte	-2659
▁presi	-2660
mientos	-2661
▁empleo	-2662
▁lastim	-2663
▁Conozco	-2664
▁Lamento	-2665
▁comenzó	-2666
▁intentó	-2667
▁hicieron	-2668
▁estuviera	-2669
▁siguiente	-2670
▁necesitaba	-2671
▁experiencia	-2672
Para	-2673
poco	-2674
▁pic	-2675
ierra	-2676
▁diga	-2677
▁hará	-2678
▁mara	-2679
▁ocho	-2680
▁proy	-2681
▁Estas	-2682
▁leído	-2683
▁verlo	-2684
▁sentir	-2685
▁sentía	-2686
min	-2687
▁ref	-2688
▁cuad	-2689
▁inoc	-2690
▁sino	-2691
▁amiga	-2692
▁ayudó	-2693
▁claro	-2694
▁corba	-2695
▁habló	-2696
▁prefer	-2697
▁caballo	-2698
▁domingo	-2699
▁ayudarme	-2700
▁diferente	-2701
▁enamorado	-2702
▁orgulloso	-2703
Eso	-2704
▁Ba	-2705
▁dé	-2706
▁nu	-2707
dose	-2708
gnor	-2709
inar	-2710
sito	-2711
jeros	-2712
▁sonr	-2713
▁averg	-2714
▁contó	-2715
▁sospe	-2716
▁tarta	-2717
▁tenga	-2718
▁buenos	-2719
▁cuidar	-2720
▁estáis	-2721
▁querés	-2722
▁estaría	-2723
▁Desearía	-2724
▁encontrado	-2725
▁inmediatamente	-2726
late	-2727
▁sáb	-2728
▁tot	-2729
▁Prob	-2730
▁ante	-2731
▁azul	-2732
▁fres	-2733
▁mate	-2734
▁tuyo	-2735
▁gafas	-2736
▁pared	-2737
▁comien	-2738
▁pescar	-2739
▁asiento	-2740
▁olvides	-2741
▁respons	-2742
▁almorzar	-2743
▁preocupado	-2744
▁totalmente	-2745
▁iz	-2746
stre	-2747
▁cho	-2748
▁emo	-2749
▁esf	-2750
Acaso	-2751
▁bebe	-2752
▁gana	-2753
▁piso	-2754
▁asegu	-2755
▁coger	-2756
▁naran	-2757
▁silen	-2758
▁torta	-2759
▁traje	-2760
▁idioma	-2761
▁maravi	-2762
▁izquier	-2763
▁noticia	-2764
▁favorita	-2765
".	-2766
▁k	-2767
jes	-2768
▁Am	-2769
Uste	-2770
▁edu	-2771
dimos	-2772
grafo	-2773
▁torm	-2774
rieron	-2775
▁mostr	-2776
▁puedas	-2777
▁siguió	-2778
▁corbata	-2779
▁encuent	-2780
▁borracho	-2781
▁entiende	-2782
▁proyecto	-2783
▁Ju	-2784
▁Oí	-2785
tame	-2786
teri	-2787
▁mil	-2788
▁pop	-2789
antas	-2790
zando	-2791
▁apoy	-2792
▁bolí	-2793
▁dado	-2794
▁idio	-2795
▁depen	-2796
▁march	-2797
▁quitó	-2798
▁contro	-2799
▁novela	-2800
▁perdon	-2801
▁propia	-2802
▁propio	-2803
▁puente	-2804
▁anciano	-2805
▁olvidar	-2806
▁tampoco	-2807
▁decidido	-2808
▁domingos	-2809
▁diferencia	-2810
eral	-2811
tenta	-2812
érica	-2813
▁raro	-2814
▁tram	-2815
▁aprob	-2816
▁repar	-2817
▁retras	-2818
▁acompañ	-2819
▁decirme	-2820
ona	-2821
▁Be	-2822
▁So	-2823
gico	-2824
gres	-2825
pado	-2826
star	-2827
raste	-2828
▁carr	-2829
▁cita	-2830
▁comi	-2831
▁esas	-2832
uerdas	-2833
▁incen	-2834
vamente	-2835
▁famoso	-2836
▁planes	-2837
▁gustaba	-2838
▁haberlo	-2839
▁matemát	-2840
▁tranqui	-2841
▁capacidad	-2842
▁lloviendo	-2843
once	-2844
▁dul	-2845
▁paz	-2846
icado	-2847
▁líne	-2848
▁paci	-2849
▁vini	-2850
▁bolsa	-2851
▁campo	-2852
▁guapa	-2853
▁hacen	-2854
▁siente	-2855
▁botella	-2856
▁informa	-2857
▁público	-2858
entemente	-2859
▁tormenta	-2860
30.	-2861
déis	-2862
▁Amb	-2863
▁pis	-2864
▁usa	-2865
dónde	-2866
▁Hice	-2867
▁casó	-2868
▁sale	-2869
▁Perdí	-2870
▁asist	-2871
▁ignor	-2872
▁alegro	-2873
▁precio	-2874
▁pájaro	-2875
▁Algunas	-2876
▁averigu	-2877
▁compras	-2878
▁podrías	-2879
▁vuestro	-2880
▁enfadado	-2881
Hab	-2882
con	-2883
ser	-2884
vil	-2885
arás	-2886
ándo	-2887
▁Uno	-2888
▁piz	-2889
▁pos	-2890
lando	-2891
tente	-2892
▁arma	-2893
▁cier	-2894
▁golf	-2895
▁parti	-2896
▁paseo	-2897
▁trata	-2898
▁abuela	-2899
▁buenas	-2900
▁enseñó	-2901
▁llegué	-2902
▁prueba	-2903
▁tengas	-2904
▁vuelto	-2905
▁limpiar	-2906
madamente	-2907
▁convencer	-2908
▁ordenador	-2909
▁trabajado	-2910
▁información	-2911
▁verdaderamente	-2912
ing	-2913
mar	-2914
▁go	-2915
eses	-2916
vido	-2917
▁bri	-2918
▁mem	-2919
ferta	-2920
lante	-2921
mento	-2922
queta	-2923
▁apre	-2924
biendo	-2925
▁Solía	-2926
▁espal	-2927
▁junto	-2928
▁luego	-2929
▁menor	-2930
▁pensé	-2931
▁prima	-2932
▁encima	-2933
▁oferta	-2934
▁especial	-2935
▁Deberíamos	-2936
mó	-2937
▁Os	-2938
▁poe	-2939
▁trá	-2940
tivos	-2941
▁abra	-2942
▁bara	-2943
▁sali	-2944
▁veía	-2945
cionar	-2946
fortun	-2947
▁detal	-2948
▁gustó	-2949
▁pesar	-2950
▁supon	-2951
▁herido	-2952
▁constru	-2953
▁decirte	-2954
▁idiomas	-2955
▁repente	-2956
▁satisfe	-2957
▁Queremos	-2958
▁olvidado	-2959
▁perfecto	-2960
▁terrible	-2961
▁presidente	-2962
eci	-2963
bras	-2964
cada	-2965
enti	-2966
fier	-2967
iría	-2968
▁sui	-2969
illas	-2970
letas	-2971
stado	-2972
vando	-2973
▁deli	-2974
▁arroz	-2975
▁quise	-2976
▁bonita	-2977
▁cambio	-2978
▁conocer	-2979
▁haberte	-2980
▁mejores	-2981
chi	-2982
inó	-2983
tom	-2984
ísi	-2985
▁Así	-2986
▁Res	-2987
▁aba	-2988
▁bur	-2989
▁for	-2990
▁Dile	-2991
▁Toma	-2992
▁camp	-2993
▁dest	-2994
▁flor	-2995
▁lápi	-2996
▁odia	-2997
▁supi	-2998
▁ingen	-2999
▁nació	-3000
▁suena	-3001
▁debajo	-3002
▁varias	-3003
▁interesa	-3004
▁preocupar	-3005
▁Ap	-3006
vera	-3007
▁Tal	-3008
▁amo	-3009
▁Aque	-3010
▁Euro	-3011
▁fras	-3012
▁temo	-3013
▁Escri	-3014
▁botón	-3015
▁lápiz	-3016
▁ocurr	-3017
▁paste	-3018
▁queso	-3019
Alguien	-3020
▁jugado	-3021
▁sintió	-3022
▁Pareces	-3023
▁despacio	-3024
▁silencio	-3025
▁tratando	-3026
▁maravillos	-3027
▁matemáticas	-3028
íg	-3029
tán	-3030
ecía	-3031
oces	-3032
▁dan	-3033
iones	-3034
tante	-3035
▁Debe	-3036
▁acus	-3037
▁cubi	-3038
▁cuer	-3039
▁paso	-3040
▁sepa	-3041
▁útil	-3042
▁ayude	-3043
▁llena	-3044
▁suici	-3045
▁verde	-3046
▁correo	-3047
▁carrera	-3048
▁hacerte	-3049
▁permiso	-3050
▁soportar	-3051
mió	-3052
rio	-3053
óma	-3054
▁is	-3055
▁bos	-3056
▁fla	-3057
▁pul	-3058
▁deja	-3059
▁negó	-3060
▁dices	-3061
▁hacía	-3062
▁hayas	-3063
▁quiso	-3064
Todavía	-3065
mamente	-3066
▁Espera	-3067
▁alegra	-3068
▁apenas	-3069
▁aceptar	-3070
▁aquella	-3071
▁enojado	-3072
▁pájaros	-3073
▁querías	-3074
▁quedarte	-3075
▁agradable	-3076
▁despierto	-3077
▁seguridad	-3078
▁3	-3079
ñec	-3080
▁cl	-3081
▁cr	-3082
▁Cam	-3083
ables	-3084
arios	-3085
penas	-3086
▁digo	-3087
▁docu	-3088
▁mamá	-3089
▁mapa	-3090
▁Discu	-3091
▁Todas	-3092
▁liber	-3093
▁miemb	-3094
▁muñec	-3095
▁recha	-3096
▁resto	-3097
▁valor	-3098
▁Apenas	-3099
▁Europa	-3100
▁buscar	-3101
▁confun	-3102
▁veinte	-3103
▁continu	-3104
▁empieza	-3105
▁enemigo	-3106
▁sabemos	-3107
▁contacto	-3108
▁medicina	-3109
▁prometió	-3110
▁preparado	-3111
▁frecuencia	-3112
▁sorprendido	-3113
eb	-3114
▁Ex	-3115
▁ago	-3116
▁gas	-3117
▁hie	-3118
▁pág	-3119
▁sir	-3120
taste	-3121
tubre	-3122
▁ejer	-3123
▁revi	-3124
▁sorp	-3125
▁enter	-3126
▁maest	-3127
▁viste	-3128
▁lentes	-3129
▁perfec	-3130
abilidad	-3131
licación	-3132
▁sobrevi	-3133
▁intención	-3134
▁mintiendo	-3135
▁necesitamos	-3136
▁sentimientos	-3137
dra	-3138
dés	-3139
zon	-3140
▁ef	-3141
▁jó	-3142
▁Has	-3143
▁asp	-3144
venes	-3145
▁cerc	-3146
▁char	-3147
▁empe	-3148
▁ganó	-3149
▁obli	-3150
▁reír	-3151
▁roto	-3152
▁Quizá	-3153
▁autom	-3154
▁obser	-3155
▁otras	-3156
▁segui	-3157
▁Estuve	-3158
▁enferm	-3159
▁normal	-3160
▁parado	-3161
▁Nuestra	-3162
▁jóvenes	-3163
▁levantó	-3164
▁aburrido	-3165
▁cambiado	-3166
pá	-3167
▁á	-3168
icul	-3169
jada	-3170
loso	-3171
▁Nue	-3172
▁aum	-3173
▁sof	-3174
▁Algo	-3175
▁Será	-3176
▁trai	-3177
▁abajo	-3178
▁humor	-3179
▁ejerci	-3180
▁nuevos	-3181
▁platos	-3182
▁sangre	-3183
▁tomado	-3184
▁cansada	-3185
▁tráfico	-3186
▁fotograf	-3187
▁bolígrafo	-3188
▁sorprendió	-3189
▁Probablemente	-3190
Os	-3191
cl	-3192
oro	-3193
tam	-3194
▁há	-3195
ezco	-3196
ienta	-3197
monos	-3198
▁pies	-3199
ábamos	-3200
▁darle	-3201
▁recor	-3202
tamento	-3203
▁bosque	-3204
▁descub	-3205
▁idiota	-3206
▁ladrón	-3207
▁opción	-3208
▁escucha	-3209
▁recuper	-3210
▁segundo	-3211
▁sientes	-3212
▁resfriado	-3213
ác	-3214
rez	-3215
eran	-3216
gada	-3217
selo	-3218
▁bom	-3219
▁cán	-3220
▁fri	-3221
▁ojo	-3222
▁soñ	-3223
ático	-3224
▁eras	-3225
▁tema	-3226
▁Éste	-3227
virtió	-3228
ándose	-3229
▁andar	-3230
▁hielo	-3231
▁juega	-3232
▁menti	-3233
▁nueve	-3234
Podemos	-3235
bilidad	-3236
▁América	-3237
▁enferma	-3238
▁octubre	-3239
▁árboles	-3240
▁culpable	-3241
▁discurso	-3242
▁inocente	-3243
▁nuestras	-3244
▁solución	-3245
▁películas	-3246
▁rápidamente	-3247
lub	-3248
▁pl	-3249
▁ur	-3250
inos	-3251
mido	-3252
telo	-3253
▁Tus	-3254
▁Vay	-3255
▁bañ	-3256
▁dep	-3257
inado	-3258
▁club	-3259
▁feli	-3260
▁form	-3261
▁mill	-3262
▁sonó	-3263
lación	-3264
▁cuest	-3265
▁grupo	-3266
▁hablo	-3267
▁ideas	-3268
▁recom	-3269
▁vieja	-3270
▁chicas	-3271
▁hablan	-3272
▁pastel	-3273
▁vender	-3274
▁pintura	-3275
▁conocido	-3276
▁esconder	-3277
▁nervioso	-3278
▁sorpresa	-3279
▁paciencia	-3280
▁pertenece	-3281
El	-3282
sos	-3283
uni	-3284
▁Ol	-3285
gues	-3286
Usted	-3287
ramos	-3288
▁agar	-3289
▁hier	-3290
▁irte	-3291
▁luna	-3292
▁muse	-3293
▁pusi	-3294
dencia	-3295
▁lavar	-3296
▁mitad	-3297
▁preci	-3298
▁servi	-3299
▁Aunque	-3300
▁Escuch	-3301
▁pelota	-3302
▁tenías	-3303
▁conocía	-3304
▁decidir	-3305
▁derecha	-3306
▁dijeron	-3307
▁espalda	-3308
▁vuestra	-3309
▁prestado	-3310
▁ventanas	-3311
▁izquierda	-3312
fortunadamente	-3313
ór	-3314
lir	-3315
nes	-3316
pos	-3317
▁Hu	-3318
óvil	-3319
▁Can	-3320
▁ens	-3321
▁oro	-3322
▁Vuel	-3323
▁casu	-3324
▁paró	-3325
▁Ambos	-3326
▁autor	-3327
▁carre	-3328
▁fruta	-3329
▁línea	-3330
▁pocas	-3331
▁sentí	-3332
▁terre	-3333
▁volun	-3334
▁cerrar	-3335
▁viento	-3336
▁intentar	-3337
▁probable	-3338
▁recuerda	-3339
▁encuentro	-3340
▁esperanza	-3341
▁primavera	-3342
▁interesado	-3343
000	-3344
aso	-3345
cin	-3346
fón	-3347
ram	-3348
uda	-3349
uir	-3350
umo	-3351
▁Ab	-3352
▁ru	-3353
alla	-3354
dera	-3355
▁aje	-3356
cionó	-3357
steis	-3358
tarse	-3359
▁Esos	-3360
▁tuya	-3361
quilla	-3362
▁Nueva	-3363
▁pocos	-3364
▁suele	-3365
▁tonto	-3366
▁traer	-3367
▁centro	-3368
▁avergon	-3369
▁escapar	-3370
▁popular	-3371
▁precios	-3372
▁hermanas	-3373
▁estábamos	-3374
▁escuchando	-3375
▁explicación	-3376
div	-3377
daba	-3378
onos	-3379
rump	-3380
ster	-3381
▁Hac	-3382
▁cir	-3383
▁dro	-3384
▁iré	-3385
▁sob	-3386
jando	-3387
timos	-3388
▁Lleg	-3389
▁desh	-3390
ambién	-3391
▁Hasta	-3392
▁choco	-3393
▁cigar	-3394
▁colec	-3395
▁darme	-3396
▁deseo	-3397
▁multi	-3398
▁renun	-3399
▁venta	-3400
▁pierna	-3401
▁tratar	-3402
▁comport	-3403
▁sospech	-3404
▁llorando	-3405
▁principio	-3406
▁computador	-3407
▁profundamente	-3408
reí	-3409
ses	-3410
▁Va	-3411
Esto	-3412
▁Fin	-3413
▁rey	-3414
▁tur	-3415
▁uti	-3416
ecido	-3417
▁Buen	-3418
▁arru	-3419
▁dedo	-3420
▁hubo	-3421
▁mone	-3422
▁roja	-3423
▁sofá	-3424
Adónde	-3425
▁echar	-3426
▁perdí	-3427
▁pizza	-3428
▁Tienen	-3429
▁flauta	-3430
▁oscuro	-3431
▁sencil	-3432
▁capital	-3433
▁escuchó	-3434
▁manejar	-3435
▁discutir	-3436
▁soldados	-3437
▁desayunar	-3438
▁escaleras	-3439
▁simplemente	-3440
bar	-3441
gri	-3442
ial	-3443
olo	-3444
▁10	-3445
▁zo	-3446
▁fon	-3447
▁oyó	-3448
▁rev	-3449
ectos	-3450
tario	-3451
vesti	-3452
▁arte	-3453
▁copi	-3454
▁duda	-3455
▁econ	-3456
▁quin	-3457
cional	-3458
pósito	-3459
vieron	-3460
▁brome	-3461
▁excel	-3462
▁peces	-3463
▁tarje	-3464
▁diario	-3465
▁fantas	-3466
▁golpeó	-3467
▁inform	-3468
▁madera	-3469
▁trampa	-3470
▁varios	-3471
▁entrada	-3472
▁máquina	-3473
▁prisión	-3474
▁promesa	-3475
▁terremo	-3476
▁volverá	-3477
▁adelante	-3478
▁correcta	-3479
▁explicar	-3480
▁chocolate	-3481
▁preocupes	-3482
▁casualidad	-3483
fr	-3484
ací	-3485
cal	-3486
fic	-3487
mor	-3488
rac	-3489
▁Qu	-3490
ceso	-3491
guen	-3492
ista	-3493
quer	-3494
zada	-3495
▁arm	-3496
▁cap	-3497
▁cár	-3498
▁mañ	-3499
▁urg	-3500
endió	-3501
▁artí	-3502
▁modo	-3503
▁rara	-3504
▁robó	-3505
▁veré	-3506
▁Mucha	-3507
▁Sería	-3508
▁habrá	-3509
▁harto	-3510
▁museo	-3511
▁progr	-3512
▁vivía	-3513
▁estuve	-3514
▁habías	-3515
▁países	-3516
▁sonrió	-3517
▁vuelva	-3518
▁honesto	-3519
▁memoria	-3520
▁sucedió	-3521
▁volveré	-3522
▁Encontré	-3523
▁caminando	-3524
▁verdadero	-3525
▁consciente	-3526
▁finalmente	-3527
▁Pa	-3528
eric	-3529
▁Mir	-3530
▁ali	-3531
▁das	-3532
▁lan	-3533
▁mas	-3534
zaron	-3535
▁bebi	-3536
▁boda	-3537
▁cola	-3538
▁isla	-3539
▁papá	-3540
cación	-3541
▁Llevo	-3542
▁amist	-3543
▁bolsi	-3544
▁casas	-3545
▁premi	-3546
▁solos	-3547
▁Muchas	-3548
▁basura	-3549
▁cuerpo	-3550
▁cárcel	-3551
▁robado	-3552
▁Ninguno	-3553
▁acabado	-3554
▁cerrada	-3555
▁complic	-3556
▁chaqueta	-3557
▁galletas	-3558
▁multitud	-3559
▁negocios	-3560
▁profesora	-3561
▁posibilidad	-3562
ene	-3563
orn	-3564
aste	-3565
gido	-3566
stro	-3567
▁Tan	-3568
▁Vol	-3569
▁pob	-3570
Están	-3571
tador	-3572
tines	-3573
▁apun	-3574
▁ater	-3575
▁avis	-3576
▁llen	-3577
tieron	-3578
▁casti	-3579
▁dicen	-3580
▁ducha	-3581
▁frase	-3582
▁grave	-3583
▁gusto	-3584
▁yenes	-3585
▁cuerda	-3586
▁cáncer	-3587
▁romper	-3588
▁delante	-3589
▁desapar	-3590
▁dificul	-3591
▁excepto	-3592
▁explicó	-3593
▁haberme	-3594
▁mañanas	-3595
▁negocio	-3596
▁sonrisa	-3597
▁nosotras	-3598
▁Necesitas	-3599
▁billetera	-3600
▁excelente	-3601
▁satisfecho	-3602
▁absolutamente	-3603
▁probablemente	-3604
jé	-3605
ye	-3606
eto	-3607
imo	-3608
ork	-3609
bede	-3610
▁Bus	-3611
entas	-3612
stico	-3613
table	-3614
tural	-3615
▁bajó	-3616
▁male	-3617
▁mató	-3618
▁pone	-3619
▁ries	-3620
anoche	-3621
ermina	-3622
▁ambos	-3623
▁calce	-3624
▁comun	-3625
▁corto	-3626
▁costó	-3627
▁mente	-3628
▁pasap	-3629
▁tenés	-3630
▁verdu	-3631
▁fiebre	-3632
▁hablas	-3633
▁hables	-3634
▁hechos	-3635
▁maleta	-3636
▁manten	-3637
▁mostró	-3638
▁casarse	-3639
▁hablado	-3640
▁investi	-3641
▁llamada	-3642
▁parecen	-3643
▁descanso	-3644
▁encantan	-3645
▁incendio	-3646
▁ocupados	-3647
▁viviendo	-3648
▁resultado	-3649
▁medianoche	-3650
▁preguntaba	-3651
cur	-3652
dul	-3653
ond	-3654
cens	-3655
dame	-3656
ende	-3657
jera	-3658
▁Veo	-3659
▁ton	-3660
▁tía	-3661
orias	-3662
quete	-3663
tarme	-3664
viste	-3665
▁Reci	-3666
▁alum	-3667
▁comí	-3668
▁ofre	-3669
▁vier	-3670
ientas	-3671
▁alegr	-3672
▁amaba	-3673
▁bajar	-3674
▁hambr	-3675
▁recon	-3676
▁ascens	-3677
▁cambió	-3678
▁pantal	-3679
▁partir	-3680
▁conocen	-3681
▁depende	-3682
▁enseñar	-3683
▁querría	-3684
▁tuviera	-3685
▁Recuerdo	-3686
▁objetivo	-3687
▁distancia	-3688
▁ejercicio	-3689
▁necesitan	-3690
▁propósito	-3691
▁cualquiera	-3692
▁dificultad	-3693
▁escribiendo	-3694
La	-3695
fa	-3696
óm	-3697
coh	-3698
guí	-3699
stó	-3700
ton	-3701
brir	-3702
icen	-3703
leto	-3704
▁eje	-3705
ombra	-3706
▁Fran	-3707
▁Lond	-3708
▁Olvi	-3709
▁York	-3710
▁dibu	-3711
▁esco	-3712
▁hábi	-3713
▁odio	-3714
▁pron	-3715
▁rica	-3716
dentes	-3717
dremos	-3718
traste	-3719
▁cargo	-3720
▁darte	-3721
▁dedos	-3722
▁dulce	-3723
▁esqui	-3724
▁linda	-3725
▁salvo	-3726
▁vimos	-3727
▁camión	-3728
▁crimen	-3729
▁elegir	-3730
▁nativo	-3731
▁perman	-3732
▁teatro	-3733
▁tenéis	-3734
▁Intenté	-3735
▁Londres	-3736
▁También	-3737
▁bienven	-3738
▁hermoso	-3739
▁piernas	-3740
▁cantante	-3741
▁deberían	-3742
▁vosotras	-3743
▁averiguar	-3744
▁estadouni	-3745
▁inmediato	-3746
▁japoneses	-3747
▁oscuridad	-3748
▁pasaporte	-3749
▁normalmente	-3750
cí	-3751
ira	-3752
drez	-3753
itos	-3754
llar	-3755
osas	-3756
▁Han	-3757
▁Iré	-3758
▁Vas	-3759
▁pér	-3760
▁reh	-3761
jeras	-3762
▁acor	-3763
▁alar	-3764
▁cele	-3765
▁daré	-3766
▁echó	-3767
▁fábr	-3768
▁pasé	-3769
bierno	-3770
▁China	-3771
▁Sabes	-3772
▁alcoh	-3773
▁broma	-3774
▁casar	-3775
▁cortó	-3776
▁deten	-3777
▁divor	-3778
▁encar	-3779
▁sacar	-3780
▁trans	-3781
▁Cuanto	-3782
▁Siento	-3783
▁bonito	-3784
▁culpar	-3785
▁gratis	-3786
▁noches	-3787
▁recono	-3788
▁tenían	-3789
▁ajedrez	-3790
▁conoces	-3791
▁incluso	-3792
▁llamado	-3793
▁mentira	-3794
▁princip	-3795
▁viernes	-3796
▁política	-3797
▁supermer	-3798
▁interrump	-3799
▁propuesta	-3800
▁Sí	-3801
char	-3802
rios	-3803
áles	-3804
▁lab	-3805
biste	-3806
ómago	-3807
▁Haré	-3808
▁fría	-3809
Necesi	-3810
▁acabó	-3811
▁alqui	-3812
▁bolso	-3813
▁condi	-3814
▁debía	-3815
▁dieta	-3816
▁ejemp	-3817
▁guste	-3818
▁luces	-3819
▁mante	-3820
▁quebr	-3821
▁reali	-3822
▁solas	-3823
Conoces	-3824
▁apagar	-3825
▁casada	-3826
▁duerme	-3827
▁especi	-3828
▁expres	-3829
▁olvidé	-3830
▁quejar	-3831
▁pérdida	-3832
▁quedaré	-3833
▁absoluto	-3834
▁estómago	-3835
▁preocupa	-3836
▁canciones	-3837
▁compraste	-3838
▁conductor	-3839
▁consiguió	-3840
▁empezando	-3841
▁encuentra	-3842
▁respondió	-3843
ha	-3844
éc	-3845
ler	-3846
nic	-3847
tró	-3848
ariz	-3849
entí	-3850
pira	-3851
▁sed	-3852
umbre	-3853
▁Llam	-3854
▁caer	-3855
▁diré	-3856
▁míos	-3857
▁suyo	-3858
▁velo	-3859
Quiere	-3860
ámonos	-3861
▁Creía	-3862
▁doble	-3863
▁estan	-3864
▁mirar	-3865
▁prohi	-3866
▁reser	-3867
▁separ	-3868
▁vuelo	-3869
eratura	-3870
▁enorme	-3871
▁entero	-3872
▁podéis	-3873
▁premio	-3874
▁salido	-3875
▁tierra	-3876
▁Pensaba	-3877
▁Quédate	-3878
▁acordar	-3879
▁cumplir	-3880
▁deporte	-3881
▁lenguas	-3882
▁pedirle	-3883
▁queréis	-3884
▁recibir	-3885
▁resultó	-3886
mplemente	-3887
▁muchacho	-3888
▁discusión	-3889
▁distinguir	-3890
▁responsable	-3891
▁temperatura	-3892
▁comportamiento	-3893
ban	-3894
ola	-3895
dica	-3896
sten	-3897
tual	-3898
▁cla	-3899
▁rum	-3900
uesto	-3901
▁cuel	-3902
▁faci	-3903
▁geme	-3904
adores	-3905
▁Hazlo	-3906
▁Jamás	-3907
▁arena	-3908
▁extre	-3909
▁lágri	-3910
▁retir	-3911
▁techo	-3912
▁Discul	-3913
▁Quizás	-3914
▁animal	-3915
▁constr	-3916
▁detuvo	-3917
▁fuiste	-3918
▁pintar	-3919
▁página	-3920
▁afortun	-3921
▁asesina	-3922
▁natural	-3923
▁ninguno	-3924
▁ocurrir	-3925
▁revista	-3926
▁apareció	-3927
▁cometido	-3928
▁importar	-3929
▁proteger	-3930
▁impresion	-3931
▁necesitar	-3932
▁Finalmente	-3933
▁importaría	-3934
▁Simplemente	-3935
▁supermercado	-3936
Son	-3937
▁bu	-3938
esas	-3939
ices	-3940
mbre	-3941
oluc	-3942
▁irá	-3943
▁leí	-3944
▁mur	-3945
esper	-3946
tiene	-3947
▁Dejé	-3948
▁Hubo	-3949
▁Vivo	-3950
▁adul	-3951
▁arti	-3952
▁beso	-3953
▁ocas	-3954
▁pegó	-3955
▁Ésta	-3956
▁cerró	-3957
▁gordo	-3958
▁gradu	-3959
▁hable	-3960
▁llevo	-3961
▁nariz	-3962
▁siste	-3963
▁volar	-3964
▁americ	-3965
▁arriba	-3966
▁caball	-3967
▁conocí	-3968
▁cuidad	-3969
▁descri	-3970
▁fresco	-3971
▁merece	-3972
▁probar	-3973
▁sueños	-3974
▁sábado	-3975
▁cartera	-3976
▁escribe	-3977
▁extraña	-3978
▁general	-3979
▁involuc	-3980
▁pareces	-3981
▁prefier	-3982
▁present	-3983
▁recibió	-3984
▁recomen	-3985
▁saberlo	-3986
▁despedir	-3987
ormalmente	-3988
▁bromeando	-3989
pl	-3990
gor	-3991
lle	-3992
ula	-3993
uén	-3994
▁30	-3995
imos	-3996
lada	-3997
▁dol	-3998
▁sur	-3999
gaste	-4000
jamos	-4001
▁Hici	-4002
▁Llev	-4003
▁Perm	-4004
▁besó	-4005
▁habi	-4006
▁indi	-4007
▁ridí	-4008
uestos	-4009
▁arrep	-4010
▁contr	-4011
▁jugue	-4012
▁podrá	-4013
▁vacía	-4014
▁Compar	-4015
▁agrada	-4016
▁aunque	-4017
▁corrió	-4018
▁listos	-4019
▁partes	-4020
▁piedra	-4021
▁sabido	-4022
▁vivido	-4023
▁Podemos	-4024
▁adentro	-4025
▁cometer	-4026
▁correos	-4027
▁empresa	-4028
▁espacio	-4029
▁maestro	-4030
▁prestar	-4031
▁robaron	-4032
▁talento	-4033
▁ausencia	-4034
▁comenzar	-4035
▁Estábamos	-4036
▁confianza	-4037
▁educación	-4038
▁empleados	-4039
▁facilidad	-4040
▁mentiroso	-4041
▁fácilmente	-4042
chó	-4043
.000	-4044
ment	-4045
tida	-4046
▁haz	-4047
ámame	-4048
ísimo	-4049
▁Desa	-4050
▁doce	-4051
▁quem	-4052
▁reme	-4053
uestas	-4054
éramos	-4055
▁ciego	-4056
▁cogió	-4057
▁enemi	-4058
▁subió	-4059
▁trajo	-4060
▁España	-4061
▁arries	-4062
▁ganado	-4063
▁genial	-4064
▁motivo	-4065
▁parada	-4066
▁solici	-4067
▁debemos	-4068
▁informe	-4069
▁llegará	-4070
▁tomando	-4071
▁trabajó	-4072
▁murieron	-4073
▁pregunté	-4074
▁quisiera	-4075
▁carretera	-4076
▁descansar	-4077
▁invitados	-4078
▁necesidad	-4079
▁Normalmente	-4080
Re	-4081
et	-4082
pé	-4083
óp	-4084
deo	-4085
iza	-4086
omo	-4087
ord	-4088
val	-4089
zca	-4090
▁ag	-4091
▁at	-4092
just	-4093
▁juz	-4094
tidad	-4095
▁alér	-4096
▁bail	-4097
▁débi	-4098
reíble	-4099
▁bella	-4100
▁cance	-4101
▁creía	-4102
▁fondo	-4103
▁huevo	-4104
▁incor	-4105
▁meter	-4106
▁poema	-4107
▁saltó	-4108
feriría	-4109
▁Fuimos	-4110
▁anillo	-4111
▁aproxi	-4112
▁barato	-4113
▁blanca	-4114
▁cortar	-4115
▁descon	-4116
▁esposo	-4117
▁fuimos	-4118
▁imagin	-4119
▁llueva	-4120
▁ocupar	-4121
▁Francia	-4122
▁ayudara	-4123
▁control	-4124
▁estarás	-4125
▁muebles	-4126
▁naranja	-4127
▁ocultar	-4128
▁pensado	-4129
▁piscina	-4130
▁recoger	-4131
▁regalos	-4132
▁sistema	-4133
▁tarjeta	-4134
▁vecinos	-4135
▁felicidad	-4136
▁resultados	-4137
▁aprendiendo	-4138
▁computadora	-4139
▁últimamente	-4140
▁extremadamente	-4141
Tu	-4142
ho	-4143
lló	-4144
oló	-4145
▁Ar	-4146
cito	-4147
garé	-4148
irar	-4149
▁afi	-4150
▁hon	-4151
▁mej	-4152
▁pez	-4153
dense	-4154
moslo	-4155
stola	-4156
▁Acep	-4157
▁Come	-4158
▁cepi	-4159
▁huel	-4160
▁inde	-4161
Cuáles	-4162
olveré	-4163
tonces	-4164
▁Habla	-4165
▁Quier	-4166
▁amena	-4167
▁apres	-4168
▁calma	-4169
▁exist	-4170
▁motor	-4171
▁mover	-4172
▁turno	-4173
▁Pronto	-4174
▁limpia	-4175
▁llamas	-4176
▁pedido	-4177
▁preten	-4178
▁supone	-4179
▁visita	-4180
▁alcohol	-4181
▁detener	-4182
▁emocion	-4183
▁fábrica	-4184
▁hicimos	-4185
▁partici	-4186
▁pistola	-4187
▁quedado	-4188
▁querían	-4189
▁supiera	-4190
tivamente	-4191
▁artículo	-4192
▁cantando	-4193
▁japonesa	-4194
▁mediodía	-4195
▁ayudarnos	-4196
▁contestar	-4197
▁descubrir	-4198
▁estrellas	-4199
▁calcetines	-4200
▁diferentes	-4201
▁escondiendo	-4202
úa	-4203
lad	-4204
mba	-4205
ric	-4206
xto	-4207
yos	-4208
zan	-4209
▁ví	-4210
cida	-4211
dito	-4212
igió	-4213
▁Cui	-4214
▁Más	-4215
▁Trá	-4216
▁bre	-4217
▁che	-4218
▁hun	-4219
dicos	-4220
ertas	-4221
guida	-4222
▁apla	-4223
▁cabo	-4224
▁repe	-4225
Estáis	-4226
diente	-4227
gieron	-4228
émonos	-4229
▁Lleva	-4230
▁Tenés	-4231
▁acaso	-4232
▁armas	-4233
▁hogar	-4234
▁hojas	-4235
▁malas	-4236
▁trozo	-4237
inación	-4238
▁Tierra	-4239
▁acento	-4240
▁dispon	-4241
▁empeor	-4242
▁entera	-4243
▁habéis	-4244
▁habían	-4245
▁invitó	-4246
▁pasará	-4247
▁podido	-4248
▁quince	-4249
▁Tuvimos	-4250
▁andando	-4251
▁jugador	-4252
▁parecer	-4253
▁pareció	-4254
▁seguros	-4255
▁vistazo	-4256
▁bolsillo	-4257
▁horrible	-4258
▁lágrimas	-4259
▁verduras	-4260
▁asesinato	-4261
▁disculpar	-4262
▁dispuesto	-4263
▁intentado	-4264
▁terremoto	-4265
▁accidentes	-4266
▁preparando	-4267
▁profesores	-4268
sé	-4269
ack	-4270
adá	-4271
ala	-4272
cis	-4273
fac	-4274
man	-4275
mán	-4276
óme	-4277
▁Gu	-4278
amas	-4279
ismo	-4280
itas	-4281
vent	-4282
▁aho	-4283
▁alf	-4284
▁lav	-4285
▁lee	-4286
Estoy	-4287
arnos	-4288
illos	-4289
turas	-4290
▁Esas	-4291
▁Jack	-4292
▁adop	-4293
▁atro	-4294
▁cone	-4295
▁dejé	-4296
▁divi	-4297
▁emer	-4298
▁impi	-4299
▁puse	-4300
gación	-4301
ombres	-4302
▁Dicen	-4303
▁Empez	-4304
▁absur	-4305
▁acabo	-4306
▁compe	-4307
▁corta	-4308
▁huele	-4309
▁obede	-4310
▁plato	-4311
▁vivió	-4312
lamente	-4313
▁Vuelve	-4314
▁cientí	-4315
▁coches	-4316
▁coment	-4317
▁concen	-4318
▁cuello	-4319
▁declar	-4320
▁entren	-4321
▁ingenu	-4322
▁llevas	-4323
▁tendrá	-4324
▁viejos	-4325
▁vuelve	-4326
▁Jackson	-4327
▁cabello	-4328
▁cigarri	-4329
▁destino	-4330
▁disparó	-4331
▁ejemplo	-4332
▁llamaré	-4333
▁alcanzar	-4334
▁detalles	-4335
▁recibido	-4336
▁servicio	-4337
▁increíble	-4338
▁televisor	-4339
▁comprender	-4340
▁levantarse	-4341
▁pantalones	-4342
ase	-4343
izo	-4344
rea	-4345
usa	-4346
caba	-4347
enza	-4348
guro	-4349
oría	-4350
éndo	-4351
▁cré	-4352
▁aman	-4353
▁cast	-4354
▁obra	-4355
▁prop	-4356
▁prác	-4357
cuenta	-4358
▁París	-4359
▁Sigue	-4360
▁emerg	-4361
▁encon	-4362
▁metro	-4363
▁moder	-4364
▁plata	-4365
▁podés	-4366
▁testi	-4367
▁vemos	-4368
eración	-4369
iamente	-4370
▁Perdón	-4371
▁Pregún	-4372
▁Termin	-4373
▁dieron	-4374
▁drogas	-4375
▁durmió	-4376
▁estaré	-4377
▁fuerza	-4378
▁mismos	-4379
▁muñeca	-4380
▁vengas	-4381
▁hacemos	-4382
▁mayores	-4383
▁molesta	-4384
▁tuvimos	-4385
▁vuelvas	-4386
▁abandonó	-4387
▁completo	-4388
▁deseando	-4389
▁documento	-4390
▁enfermera	-4391
▁habilidad	-4392
▁Preferiría	-4393
cé	-4394
ka	-4395
Él	-4396
cie	-4397
col	-4398
mir	-4399
▁ej	-4400
▁rí	-4401
capa	-4402
orro	-4403
talo	-4404
umen	-4405
▁Llé	-4406
▁Pol	-4407
▁inú	-4408
▁jug	-4409
▁ran	-4410
▁rin	-4411
▁tec	-4412
dilla	-4413
llado	-4414
tillo	-4415
uelos	-4416
ítate	-4417
▁abre	-4418
▁alma	-4419
▁anda	-4420
▁comb	-4421
▁demo	-4422
▁desi	-4423
▁gros	-4424
▁repu	-4425
▁serp	-4426
▁suje	-4427
▁sánd	-4428
encias	-4429
▁Hable	-4430
▁Mejor	-4431
▁Según	-4432
▁aguan	-4433
▁deman	-4434
▁diría	-4435
▁pollo	-4436
▁razon	-4437
▁tanta	-4438
▁vende	-4439
▁Cierra	-4440
▁Olvidé	-4441
▁antigu	-4442
▁cruzar	-4443
▁cuadro	-4444
▁dejara	-4445
▁distra	-4446
▁enseña	-4447
▁montar	-4448
▁nuevas	-4449
▁amistad	-4450
▁asistir	-4451
▁esquina	-4452
▁hubiese	-4453
▁levanté	-4454
▁paquete	-4455
▁ponerse	-4456
▁ascensor	-4457
▁estrella	-4458
▁gobierno	-4459
▁invitado	-4460
▁miembros	-4461
▁montañas	-4462
▁naranjas	-4463
▁pequeños	-4464
▁cincuenta	-4465
▁decepcion	-4466
▁fotografía	-4467
▁sorprender	-4468
cía	-4469
eas	-4470
fra	-4471
ivo	-4472
roe	-4473
tín	-4474
▁Pe	-4475
tina	-4476
▁Dos	-4477
▁fís	-4478
▁mos	-4479
▁niñ	-4480
▁uso	-4481
▁vin	-4482
stima	-4483
stitu	-4484
▁Creí	-4485
▁Dudo	-4486
▁excu	-4487
▁post	-4488
▁prac	-4489
▁robo	-4490
▁vege	-4491
▁verg	-4492
ología	-4493
sación	-4494
▁Ponte	-4495
▁adecu	-4496
▁adver	-4497
▁atras	-4498
▁irnos	-4499
▁llamo	-4500
▁metió	-4501
▁pasat	-4502
▁pelea	-4503
▁Decidí	-4504
▁cintur	-4505
▁despre	-4506
▁esperó	-4507
▁fracas	-4508
▁harías	-4509
▁picnic	-4510
▁sabías	-4511
▁utiliz	-4512
▁vecino	-4513
▁Intenta	-4514
▁ausente	-4515
▁casados	-4516
▁experim	-4517
▁levanta	-4518
▁nombres	-4519
▁requier	-4520
▁tocando	-4521
▁caballos	-4522
▁concentr	-4523
▁incorrec	-4524
▁quedamos	-4525
▁quedaron	-4526
▁aprendido	-4527
▁convenció	-4528
▁cuidadoso	-4529
▁dormitorio	-4530
▁equivocada	-4531
▁intentarlo	-4532
uj	-4533
Ven	-4534
ocí	-4535
ual	-4536
vés	-4537
▁Da	-4538
▁cá	-4539
Sabe	-4540
dial	-4541
grad	-4542
tito	-4543
▁Ado	-4544
▁suf	-4545
▁tos	-4546
Tenés	-4547
diera	-4548
gados	-4549
taria	-4550
ífico	-4551
údame	-4552
▁Cual	-4553
▁Cuén	-4554
▁Entr	-4555
▁baja	-4556
▁desn	-4557
▁duró	-4558
▁ener	-4559
▁leyó	-4560
▁pagó	-4561
▁pata	-4562
uestra	-4563
ándome	-4564
▁apagó	-4565
▁bordo	-4566
▁deben	-4567
▁medic	-4568
▁mudar	-4569
▁sepas	-4570
▁subir	-4571
▁trece	-4572
entando	-4573
▁aburri	-4574
▁agarró	-4575
▁asegur	-4576
▁celoso	-4577
▁espejo	-4578
▁espero	-4579
▁fingió	-4580
▁pronun	-4581
▁regist	-4582
▁riesgo	-4583
▁sueldo	-4584
▁teoría	-4585
▁toalla	-4586
▁usando	-4587
▁abierto	-4588
▁anciana	-4589
▁esperan	-4590
▁haberle	-4591
▁Disculpe	-4592
▁atrapado	-4593
▁cuidados	-4594
▁escritor	-4595
▁regresar	-4596
▁relación	-4597
▁saliendo	-4598
▁traducir	-4599
▁abandonar	-4600
▁demasiada	-4601
bra	-4602
cti	-4603
gia	-4604
▁Ob	-4605
▁ór	-4606
Estu	-4607
añol	-4608
jate	-4609
tale	-4610
triz	-4611
▁doy	-4612
▁pañ	-4613
▁ras	-4614
didos	-4615
garon	-4616
tones	-4617
zamos	-4618
éjame	-4619
úrate	-4620
▁dura	-4621
▁ileg	-4622
▁jugo	-4623
▁paga	-4624
▁real	-4625
iempos	-4626
undial	-4627
▁apete	-4628
▁banda	-4629
▁bomba	-4630
▁breve	-4631
▁depar	-4632
▁derro	-4633
▁espec	-4634
▁logro	-4635
▁papas	-4636
▁piens	-4637
▁sonar	-4638
▁texto	-4639
▁triun	-4640
▁famosa	-4641
▁incómo	-4642
▁mandar	-4643
▁mirada	-4644
▁perdón	-4645
▁querer	-4646
▁salvar	-4647
▁sobras	-4648
▁través	-4649
▁tímido	-4650
▁Aprendí	-4651
▁Estaban	-4652
▁Vayamos	-4653
▁admitió	-4654
▁apresur	-4655
▁hacerse	-4656
▁invitar	-4657
▁mantuvo	-4658
▁permite	-4659
▁tratado	-4660
entamente	-4661
▁elección	-4662
▁empezado	-4663
▁hablante	-4664
▁llamarme	-4665
▁peligros	-4666
▁preparar	-4667
▁valiente	-4668
▁caballero	-4669
▁convertir	-4670
▁entendido	-4671
▁preferido	-4672
▁principal	-4673
▁saludable	-4674
▁tranquilo	-4675
▁levantarme	-4676
▁sospechoso	-4677
▁apartamento	-4678
▁extranjeros	-4679
▁mantequilla	-4680
gá	-4681
ok	-4682
aló	-4683
ecé	-4684
ige	-4685
ror	-4686
vel	-4687
▁Dé	-4688
Este	-4689
ctos	-4690
mado	-4691
para	-4692
▁Mué	-4693
▁lic	-4694
ciado	-4695
ctura	-4696
culos	-4697
donde	-4698
ducir	-4699
lamos	-4700
olvió	-4701
testo	-4702
tiste	-4703
▁Dije	-4704
▁Pasé	-4705
▁Toda	-4706
▁cuar	-4707
▁dise	-4708
▁efec	-4709
▁enfr	-4710
▁just	-4711
▁menú	-4712
▁moto	-4713
▁rode	-4714
▁simp	-4715
trimon	-4716
▁Desde	-4717
▁Hablo	-4718
▁bebió	-4719
▁decír	-4720
▁dedic	-4721
▁denti	-4722
▁desma	-4723
▁débil	-4724
▁gritó	-4725
▁guapo	-4726
▁mando	-4727
▁provo	-4728
▁revis	-4729
▁suger	-4730
▁votar	-4731
oncesto	-4732
▁Llegué	-4733
▁Mantén	-4734
▁atrope	-4735
▁debido	-4736
▁hombro	-4737
▁ingres	-4738
▁millas	-4739
▁sonido	-4740
▁vernos	-4741
ualmente	-4742
▁Escuché	-4743
▁Parecía	-4744
▁admitir	-4745
▁alterna	-4746
▁cometió	-4747
▁español	-4748
▁estudia	-4749
▁interés	-4750
▁novelas	-4751
▁respeto	-4752
▁urgente	-4753
▁últimos	-4754
▁asustado	-4755
▁castillo	-4756
▁consegui	-4757
▁cubierta	-4758
▁deportes	-4759
▁esfuerzo	-4760
▁llegaron	-4761
▁matrimon	-4762
▁profundo	-4763
▁ridículo	-4764
▁costumbre	-4765
▁enseguida	-4766
▁fantasmas	-4767
▁prohibido	-4768
▁agradecido	-4769
▁baloncesto	-4770
▁convencido	-4771
▁avergonzado	-4772
▁preguntarle	-4773
Si	-4774
Pre	-4775
ave	-4776
eso	-4777
eza	-4778
jón	-4779
▁Sa	-4780
▁hé	-4781
▁án	-4782
arro	-4783
dero	-4784
gica	-4785
idas	-4786
ombr	-4787
omía	-4788
sist	-4789
éctr	-4790
▁Ver	-4791
▁ara	-4792
▁ind	-4793
Viste	-4794
dario	-4795
quito	-4796
tales	-4797
ticas	-4798
ticos	-4799
viera	-4800
▁Conf	-4801
▁Tres	-4802
▁bomb	-4803
▁capi	-4804
▁elef	-4805
▁gall	-4806
▁impa	-4807
▁inst	-4808
▁mode	-4809
▁orig	-4810
▁pose	-4811
endido	-4812
▁Prome	-4813
▁Venga	-4814
▁Vimos	-4815
▁altos	-4816
▁envió	-4817
▁hagan	-4818
▁llame	-4819
▁niñas	-4820
▁odian	-4821
▁rehus	-4822
▁trago	-4823
cciones	-4824
ológico	-4825
▁adelan	-4826
▁cierra	-4827
▁confer	-4828
▁curios	-4829
▁defini	-4830
▁dejaré	-4831
▁eléctr	-4832
▁gustas	-4833
▁habido	-4834
▁inútil	-4835
▁quedan	-4836
▁Hagamos	-4837
▁Policía	-4838
▁billete	-4839
▁consigo	-4840
▁esquiar	-4841
▁estudio	-4842
▁hacerme	-4843
▁muertos	-4844
▁ofreció	-4845
▁segunda	-4846
▁termina	-4847
▁Mientras	-4848
▁bebiendo	-4849
▁cantidad	-4850
▁cinturón	-4851
▁contrato	-4852
▁estúpida	-4853
▁promesas	-4854
▁sentarme	-4855
▁descubrió	-4856
▁despertar	-4857
▁levantado	-4858
▁orgullosa	-4859
▁tentación	-4860
▁pasatiempo	-4861
▁respuestas	-4862
..	-4863
pu	-4864
▁í	-4865
Rec	-4866
chu	-4867
ior	-4868
lam	-4869
▁Ma	-4870
Pien	-4871
cara	-4872
paje	-4873
stes	-4874
▁Díg	-4875
▁azu	-4876
▁chu	-4877
Tengo	-4878
uelto	-4879
▁Tomé	-4880
▁adiv	-4881
▁debí	-4882
▁deje	-4883
▁fren	-4884
▁ibas	-4885
▁sobr	-4886
▁suya	-4887
siones	-4888
▁Antes	-4889
▁brill	-4890
▁cruel	-4891
▁dando	-4892
▁debió	-4893
▁desor	-4894
▁herir	-4895
▁insul	-4896
▁letra	-4897
▁móvil	-4898
robable	-4899
▁Estuvo	-4900
▁Hablar	-4901
▁Podéis	-4902
▁Pregun	-4903
▁Recibí	-4904
▁adónde	-4905
▁cómodo	-4906
▁embara	-4907
▁suspen	-4908
▁triunf	-4909
▁vienes	-4910
▁Llámame	-4911
▁alumnos	-4912
▁crédito	-4913
▁hablaba	-4914
▁impidió	-4915
▁podamos	-4916
▁practic	-4917
▁querido	-4918
▁rechazó	-4919
▁remedio	-4920
▁repetir	-4921
▁seguido	-4922
▁suceder	-4923
▁volumen	-4924
▁comienzo	-4925
▁desperté	-4926
▁devolver	-4927
▁enemigos	-4928
▁equipaje	-4929
▁escalera	-4930
▁gracioso	-4931
▁hubieras	-4932
▁ocurrido	-4933
▁poniendo	-4934
▁quedando	-4935
▁supuesto	-4936
▁disculpas	-4937
▁violencia	-4938
▁emergencia	-4939
▁improbable	-4940
▁matrimonio	-4941
▁encontramos	-4942
▁significado	-4943
0.	-4944
hí	-4945
Nos	-4946
brí	-4947
ñar	-4948
▁CD	-4949
▁Li	-4950
acer	-4951
argo	-4952
gase	-4953
trón	-4954
vate	-4955
xico	-4956
éter	-4957
▁flo	-4958
▁ger	-4959
Podés	-4960
adora	-4961
bería	-4962
chila	-4963
jiste	-4964
uesta	-4965
ática	-4966
▁Sois	-4967
▁acti	-4968
▁avan	-4969
▁bebo	-4970
▁loca	-4971
▁nave	-4972
▁tomé	-4973
▁unir	-4974
▁área	-4975
mentos	-4976
ortuna	-4977
terior	-4978
▁Consi	-4979
▁Tanto	-4980
▁autos	-4981
▁canta	-4982
▁cobar	-4983
▁conge	-4984
▁copia	-4985
▁dejas	-4986
▁depri	-4987
▁estal	-4988
▁hecha	-4989
▁lloró	-4990
▁sonre	-4991
▁suave	-4992
ensible	-4993
▁Estudi	-4994
▁amigas	-4995
▁azules	-4996
▁cierta	-4997
▁gritar	-4998
▁mintió	-4999
▁mister	-5000
▁pareja	-5001
▁pelear	-5002
▁quedes	-5003
▁suéter	-5004
▁tantos	-5005
▁armario	-5006
▁capitán	-5007
▁fortuna	-5008
▁guantes	-5009
▁haberse	-5010
▁iguales	-5011
▁ingenuo	-5012
▁inventó	-5013
▁mochila	-5014
▁molesto	-5015
▁nadando	-5016
▁patatas	-5017
▁quedara	-5018
▁regresó	-5019
▁vendría	-5020
Realmente	-5021
▁aquellos	-5022
▁ayudarle	-5023
▁cuestión	-5024
▁dentista	-5025
▁libertad	-5026
▁linterna	-5027
▁presente	-5028
▁pusieron	-5029
▁compartir	-5030
▁delicioso	-5031
▁lentamente	-5032
▁nuevamente	-5033
▁canadienses	-5034
▁encontraste	-5035
▁importancia	-5036
▁conversación	-5037
▁perfectamente	-5038
Yo	-5039
zz	-5040
ág	-5041
Les	-5042
Que	-5043
apá	-5044
dez	-5045
gla	-5046
net	-5047
una	-5048
▁Ad	-5049
▁Mé	-5050
▁il	-5051
Ella	-5052
adir	-5053
ares	-5054
enda	-5055
ezca	-5056
lida	-5057
osos	-5058
rías	-5059
uena	-5060
▁afe	-5061
▁gar	-5062
▁ore	-5063
▁rue	-5064
cidos	-5065
lleza	-5066
pendo	-5067
talia	-5068
untos	-5069
zones	-5070
▁Coge	-5071
▁Dale	-5072
▁Incl	-5073
▁afec	-5074
▁fuma	-5075
▁once	-5076
▁romp	-5077
▁rota	-5078
inario	-5079
uerzos	-5080
▁India	-5081
▁actor	-5082
▁atrac	-5083
▁creyó	-5084
▁héroe	-5085
▁notas	-5086
▁nubes	-5087
▁relig	-5088
▁veras	-5089
▁Disfru	-5090
▁Italia	-5091
▁Tráeme	-5092
▁acceso	-5093
▁aceptó	-5094
▁alarma	-5095
▁cambia	-5096
▁conden	-5097
▁disfra	-5098
▁lavado	-5099
▁servir	-5100
▁violín	-5101
cimiento	-5102
icamente	-5103
▁Trabajo	-5104
▁Volveré	-5105
▁belleza	-5106
▁capaces	-5107
▁contado	-5108
▁funeral	-5109
▁guardar	-5110
▁lástima	-5111
▁Esperaba	-5112
▁cansados	-5113
▁comienza	-5114
▁esperado	-5115
▁escuchado	-5116
▁zoológico	-5117
▁afortunado	-5118
el	-5119
gí	-5120
ñó	-5121
ete	-5122
iró	-5123
stu	-5124
▁añ	-5125
▁có	-5126
ecen	-5127
lesc	-5128
▁Apa	-5129
▁Har	-5130
▁far	-5131
▁fas	-5132
▁fer	-5133
▁hir	-5134
gante	-5135
uidos	-5136
▁Mamá	-5137
▁Papá	-5138
▁Plan	-5139
▁apur	-5140
▁atas	-5141
▁cose	-5142
▁pelu	-5143
▁pers	-5144
▁piel	-5145
▁sinc	-5146
▁tiró	-5147
▁tocó	-5148
▁tomo	-5149
cieron	-5150
minist	-5151
▁batal	-5152
▁diste	-5153
▁dormí	-5154
▁ellas	-5155
▁nevar	-5156
▁pintó	-5157
▁salga	-5158
▁vacío	-5159
▁éstos	-5160
▁Canadá	-5161
▁alemán	-5162
▁bebida	-5163
▁brazos	-5164
▁celebr	-5165
▁colina	-5166
▁encuen	-5167
▁frigor	-5168
▁granja	-5169
▁incapa	-5170
▁limpio	-5171
▁salida	-5172
▁tareas	-5173
▁toques	-5174
▁Detesto	-5175
▁adolesc	-5176
▁agotado	-5177
▁artista	-5178
▁atraves	-5179
▁ciencia	-5180
▁gerente	-5181
▁piensan	-5182
▁relajar	-5183
▁salario	-5184
▁soltero	-5185
▁Entiendo	-5186
▁efectivo	-5187
▁llamaste	-5188
▁pidiendo	-5189
▁teníamos	-5190
▁despedido	-5191
▁estupendo	-5192
▁estuviste	-5193
▁pasajeros	-5194
▁población	-5195
▁velocidad	-5196
▁volviendo	-5197
▁curiosidad	-5198
▁maravillosa	-5199
▁maravilloso	-5200
▁trabajadores	-5201
Com	-5202
▁só	-5203
▁exa	-5204
▁lig	-5205
▁mez	-5206
ciosa	-5207
ertos	-5208
jeron	-5209
▁Abre	-5210
▁miel	-5211
▁peda	-5212
▁pilo	-5213
▁quiz	-5214
▁regu	-5215
▁sano	-5216
▁temb	-5217
Tienen	-5218
strame	-5219
▁Aquel	-5220
▁Asumo	-5221
▁Comen	-5222
▁Corrí	-5223
▁alcal	-5224
▁baile	-5225
▁comas	-5226
▁firme	-5227
▁gener	-5228
▁perio	-5229
▁polvo	-5230
▁primo	-5231
▁quede	-5232
▁secun	-5233
▁trato	-5234
cientos	-5235
icación	-5236
oración	-5237
osición	-5238
▁ataque	-5239
▁boleto	-5240
▁contac	-5241
▁derram	-5242
▁diecis	-5243
▁fascin	-5244
▁formas	-5245
▁fueras	-5246
▁herida	-5247
▁músico	-5248
▁ocurra	-5249
▁olvida	-5250
▁ordenó	-5251
▁pagado	-5252
▁pongas	-5253
▁regaló	-5254
▁rieron	-5255
▁saltar	-5256
▁tempor	-5257
▁íbamos	-5258
▁Incluso	-5259
▁aspecto	-5260
▁conoció	-5261
▁electri	-5262
▁fracaso	-5263
▁miembro	-5264
▁monedas	-5265
▁ponerte	-5266
▁prision	-5267
▁pudimos	-5268
▁tiempos	-5269
▁viniera	-5270
▁alérgico	-5271
▁consejos	-5272
▁enfadada	-5273
▁licencia	-5274
▁personal	-5275
▁tuvieron	-5276
▁conocemos	-5277
▁impresión	-5278
▁impuestos	-5279
▁complicado	-5280
▁frigorífico	-5281
So	-5282
ck	-5283
fo	-5284
are	-5285
elo	-5286
gil	-5287
igo	-5288
rón	-5289
seg	-5290
séñ	-5291
umí	-5292
uél	-5293
uér	-5294
blic	-5295
dens	-5296
diós	-5297
▁Ahí	-5298
▁Ayu	-5299
▁Fal	-5300
▁Llo	-5301
▁Poc	-5302
▁apu	-5303
▁crí	-5304
cados	-5305
iedad	-5306
raron	-5307
vamos	-5308
▁Sién	-5309
▁Vete	-5310
▁abol	-5311
▁cach	-5312
▁coma	-5313
▁crea	-5314
▁diam	-5315
▁iría	-5316
▁jubi	-5317
▁melo	-5318
▁uñas	-5319
▁viva	-5320
▁éste	-5321
Cuánta	-5322
Tenéis	-5323
denses	-5324
▁Asumí	-5325
▁Perdo	-5326
▁admir	-5327
▁camis	-5328
▁chist	-5329
▁comes	-5330
▁dudas	-5331
▁escla	-5332
▁inver	-5333
▁lindo	-5334
▁lleve	-5335
▁resca	-5336
▁robar	-5337
▁sabor	-5338
▁salva	-5339
▁Manten	-5340
▁acabar	-5341
▁actuar	-5342
▁aprobó	-5343
▁consec	-5344
▁económ	-5345
▁escena	-5346
▁iremos	-5347
▁largas	-5348
▁llevan	-5349
▁ocurre	-5350
▁agujero	-5351
▁alcalde	-5352
▁cercano	-5353
▁escalar	-5354
▁progres	-5355
▁retraso	-5356
▁Entonces	-5357
▁millones	-5358
▁programa	-5359
▁sencillo	-5360
▁Esperemos	-5361
▁controlar	-5362
▁convirtió	-5363
▁podríamos	-5364
▁productos	-5365
▁razonable	-5366
▁renunciar	-5367
▁claramente	-5368
▁disponible	-5369
▁naturaleza	-5370
▁alternativa	-5371
▁condiciones	-5372
▁importantes	-5373
▁departamento	-5374
▁aproximadamente	-5375
▁estadounidenses	-5376
▁responsabilidad	-5377
3.	-5378
Va	-5379
id	-5380
adi	-5381
bio	-5382
bur	-5383
ich	-5384
rás	-5385
sic	-5386
tua	-5387
▁Ci	-5388
▁Pu	-5389
adme	-5390
eliz	-5391
gust	-5392
gáis	-5393
into	-5394
rori	-5395
taré	-5396
teme	-5397
timi	-5398
▁100	-5399
▁Exp	-5400
▁Gan	-5401
▁ron	-5402
didas	-5403
dista	-5404
girió	-5405
laron	-5406
licóp	-5407
poner	-5408
▁Bien	-5409
▁afei	-5410
▁ansi	-5411
▁cont	-5412
▁dile	-5413
▁lava	-5414
▁plát	-5415
▁sois	-5416
▁supo	-5417
▁teme	-5418
▁turi	-5419
▁vali	-5420
▁Bueno	-5421
▁Permí	-5422
▁Traté	-5423
▁adiós	-5424
▁aspir	-5425
▁cajón	-5426
▁conmo	-5427
▁culti	-5428
▁curso	-5429
▁decía	-5430
▁divir	-5431
▁falda	-5432
▁horne	-5433
▁negra	-5434
▁norte	-5435
▁organ	-5436
▁pesca	-5437
▁ratón	-5438
▁regañ	-5439
▁repor	-5440
▁según	-5441
▁sirve	-5442
Piensas	-5443
Queréis	-5444
Quieren	-5445
▁México	-5446
▁altura	-5447
▁bebido	-5448
▁hábito	-5449
▁imagen	-5450
▁malent	-5451
▁materi	-5452
▁pesado	-5453
▁recuer	-5454
▁rendir	-5455
▁sabían	-5456
▁vienen	-5457
▁vieron	-5458
▁absurdo	-5459
▁agradec	-5460
▁apetece	-5461
▁apuesto	-5462
▁aquello	-5463
▁comiste	-5464
▁escribí	-5465
▁gustado	-5466
▁helicóp	-5467
▁nevando	-5468
▁planeta	-5469
▁razones	-5470
▁reparar	-5471
▁tendrás	-5472
▁vayamos	-5473
▁volando	-5474
▁acuerdas	-5475
▁desearía	-5476
▁despertó	-5477
▁divertir	-5478
▁economía	-5479
▁entregar	-5480
▁muchacha	-5481
▁secundar	-5482
▁automóvil	-5483
▁enamorada	-5484
▁historias	-5485
▁presentes	-5486
▁verdadera	-5487
▁Pregúntale	-5488
▁abandonado	-5489
▁compañeros	-5490
▁preocupada	-5491
▁conferencia	-5492
▁medicamento	-5493
▁decepcionado	-5494
▁recientemente	-5495
Sí	-5496
ke	-5497
abu	-5498
jan	-5499
Esta	-5500
dias	-5501
drán	-5502
ezas	-5503
toño	-5504
uele	-5505
▁Ale	-5506
▁Cer	-5507
▁Pri	-5508
▁int	-5509
▁mic	-5510
▁pen	-5511
▁plu	-5512
▁sil	-5513
▁vea	-5514
▁vir	-5515
adura	-5516
arías	-5517
istas	-5518
rioso	-5519
stres	-5520
trase	-5521
usión	-5522
▁Imag	-5523
▁Vine	-5524
▁anun	-5525
▁celu	-5526
▁cima	-5527
▁dejo	-5528
▁huyó	-5529
▁luch	-5530
▁mira	-5531
▁moda	-5532
▁seme	-5533
▁vine	-5534
enario	-5535
ulario	-5536
áticos	-5537
▁Adoro	-5538
▁Enséñ	-5539
▁Queda	-5540
▁Trata	-5541
▁apoyo	-5542
▁atent	-5543
▁botas	-5544
▁cantó	-5545
▁chino	-5546
▁corte	-5547
▁falle	-5548
▁falso	-5549
▁fecha	-5550
▁fines	-5551
▁gasol	-5552
▁indic	-5553
▁otoño	-5554
▁quedo	-5555
▁rumor	-5556
▁salvó	-5557
▁verle	-5558
▁vives	-5559
▁Contin	-5560
▁Guerra	-5561
▁confes	-5562
▁confío	-5563
▁consul	-5564
▁cómoda	-5565
▁dulces	-5566
▁espere	-5567
▁ilegal	-5568
▁ingeni	-5569
▁pasear	-5570
▁placer	-5571
▁rehusó	-5572
▁suelen	-5573
▁tendré	-5574
▁venden	-5575
viamente	-5576
▁ahorrar	-5577
▁antiguo	-5578
▁asuntos	-5579
▁bandera	-5580
▁cerrado	-5581
▁colores	-5582
▁comprom	-5583
▁conduce	-5584
▁cuentas	-5585
▁cuántos	-5586
▁embargo	-5587
▁grosero	-5588
▁necesit	-5589
▁pasamos	-5590
▁plantas	-5591
▁ponerme	-5592
▁soldado	-5593
▁sugirió	-5594
▁suicidó	-5595
▁suponía	-5596
▁tendría	-5597
▁alfombra	-5598
▁contrase	-5599
▁derechos	-5600
▁electrón	-5601
▁presentó	-5602
▁arrestado	-5603
▁contrario	-5604
▁conversar	-5605
▁difíciles	-5606
▁escenario	-5607
▁ocultando	-5608
▁planeando	-5609
▁aprendiste	-5610
▁extranjera	-5611
▁hambriento	-5612
▁invitación	-5613
▁electricidad	-5614
▁inteligentes	-5615
ju	-5616
áf	-5617
gal	-5618
moh	-5619
món	-5620
vís	-5621
ést	-5622
▁Dí	-5623
▁Pi	-5624
anah	-5625
brio	-5626
enso	-5627
este	-5628
icar	-5629
lera	-5630
mica	-5631
olar	-5632
orno	-5633
ticu	-5634
tien	-5635
vard	-5636
▁Amo	-5637
▁Mer	-5638
▁Pro	-5639
▁Pás	-5640
▁océ	-5641
▁pec	-5642
▁pés	-5643
▁ses	-5644
▁sig	-5645
▁tru	-5646
alada	-5647
bimos	-5648
ciera	-5649
denes	-5650
ental	-5651
tarte	-5652
toria	-5653
uroso	-5654
▁Admi	-5655
▁Comí	-5656
▁Guar	-5657
▁astr	-5658
▁caca	-5659
▁chan	-5660
▁exha	-5661
▁inci	-5662
▁inun	-5663
▁juez	-5664
▁luce	-5665
▁mono	-5666
▁nota	-5667
▁olor	-5668
▁poca	-5669
▁prue	-5670
▁rosa	-5671
▁trae	-5672
▁vago	-5673
ciales	-5674
ienten	-5675
ármelo	-5676
ército	-5677
▁aclar	-5678
▁ajust	-5679
▁almoh	-5680
▁autén	-5681
▁estén	-5682
▁fuese	-5683
▁honor	-5684
▁incon	-5685
▁llego	-5686
▁locos	-5687
▁logró	-5688
▁monte	-5689
▁nivel	-5690
▁patin	-5691
▁pesad	-5692
▁ponga	-5693
▁pongo	-5694
▁punta	-5695
▁regla	-5696
▁ricos	-5697
▁rosas	-5698
▁sensa	-5699
▁señor	-5700
▁sucio	-5701
▁veter	-5702
▁zanah	-5703
Debería	-5704
guieron	-5705
▁acercó	-5706
▁actriz	-5707
▁aterri	-5708
▁chiste	-5709
▁ciento	-5710
▁compor	-5711
▁compra	-5712
▁déjame	-5713
▁herram	-5714
▁juzgar	-5715
▁olvide	-5716
▁oscure	-5717
▁poemas	-5718
▁postre	-5719
▁primos	-5720
▁puesta	-5721
▁quejas	-5722
▁repent	-5723
▁ruidos	-5724
▁sueles	-5725
▁tardar	-5726
▁Ayúdame	-5727
▁Estudio	-5728
▁Harvard	-5729
▁calidad	-5730
▁cercana	-5731
▁descono	-5732
▁desnudo	-5733
▁directo	-5734
▁energía	-5735
▁enfadar	-5736
▁enojada	-5737
▁fuertes	-5738
▁intento	-5739
▁llevará	-5740
▁mercado	-5741
▁obtener	-5742
▁pañuelo	-5743
▁puertas	-5744
▁puntual	-5745
▁saliera	-5746
▁secuest	-5747
▁sentada	-5748
▁Vosotros	-5749
▁aguantar	-5750
▁director	-5751
▁francesa	-5752
▁requiere	-5753
▁respirar	-5754
▁teniendo	-5755
▁vinieron	-5756
▁alimentar	-5757
▁construyó	-5758
▁esfuerzos	-5759
▁funcionar	-5760
▁solicitud	-5761
▁esperanzas	-5762
▁recomendar	-5763
▁sobrevivir	-5764
▁fotografías	-5765
▁definitivamente	-5766
bla	-5767
ite	-5768
jen	-5769
leo	-5770
lio	-5771
uji	-5772
▁Ne	-5773
▁és	-5774
cula	-5775
gros	-5776
iete	-5777
liza	-5778
ocer	-5779
onde	-5780
orra	-5781
tuve	-5782
zcas	-5783
íste	-5784
▁Pón	-5785
▁blo	-5786
▁caí	-5787
▁den	-5788
▁ego	-5789
▁fij	-5790
▁nor	-5791
▁pim	-5792
▁sep	-5793
▁tes	-5794
antos	-5795
icago	-5796
jante	-5797
lados	-5798
rasil	-5799
tiles	-5800
▁Dijo	-5801
▁Haga	-5802
▁Vale	-5803
▁adic	-5804
▁ador	-5805
▁cafe	-5806
▁carb	-5807
▁dete	-5808
▁dime	-5809
▁fila	-5810
▁hoja	-5811
▁infl	-5812
▁lími	-5813
▁mani	-5814
▁meta	-5815
▁mutu	-5816
▁reve	-5817
bieron	-5818
entado	-5819
guemos	-5820
ándote	-5821
▁Camin	-5822
▁Condu	-5823
▁Sentí	-5824
▁Suelo	-5825
▁archi	-5826
▁causó	-5827
▁cerdo	-5828
▁encen	-5829
▁encer	-5830
▁gasta	-5831
▁genio	-5832
▁inqui	-5833
▁inven	-5834
▁llamé	-5835
▁presu	-5836
▁verla	-5837
▁vigil	-5838
▁yendo	-5839
Estabas	-5840
turales	-5841
▁Estáis	-5842
▁adonde	-5843
▁aprove	-5844
▁arranc	-5845
▁charla	-5846
▁dijera	-5847
▁estric	-5848
▁exager	-5849
▁marcha	-5850
▁matado	-5851
▁medida	-5852
▁quieto	-5853
▁tamaño	-5854
▁tantas	-5855
▁tejado	-5856
▁visitó	-5857
▁Aquella	-5858
▁Chicago	-5859
▁Compren	-5860
▁Escribe	-5861
▁Podrías	-5862
▁Querría	-5863
▁Sabemos	-5864
▁acusado	-5865
▁aumento	-5866
▁ayudará	-5867
▁celular	-5868
▁chistes	-5869
▁estupen	-5870
▁hagamos	-5871
▁haremos	-5872
▁humanos	-5873
▁incapaz	-5874
▁mejorar	-5875
▁queráis	-5876
▁sonreír	-5877
▁testigo	-5878
▁viniste	-5879
▁Cuéntame	-5880
▁caluroso	-5881
▁cerrados	-5882
▁cocinero	-5883
▁deshacer	-5884
▁encendió	-5885
▁llamando	-5886
▁mostraré	-5887
▁obedecer	-5888
▁pimienta	-5889
▁vuestros	-5890
▁Esperamos	-5891
▁Muéstrame	-5892
▁comprarlo	-5893
▁conocimos	-5894
▁consecuen	-5895
▁encantado	-5896
▁enseñarme	-5897
▁arrepiento	-5898
▁compromiso	-5899
▁elecciones	-5900
▁impaciente	-5901
▁participar	-5902
▁conduciendo	-5903
▁preocuparse	-5904
Aún	-5905
Des	-5906
ade	-5907
amp	-5908
gna	-5909
lor	-5910
ped	-5911
tía	-5912
▁Ro	-5913
Comp	-5914
enme	-5915
rito	-5916
rsos	-5917
tese	-5918
ñado	-5919
▁Esc	-5920
▁alo	-5921
▁apr	-5922
▁fle	-5923
▁hal	-5924
▁imi	-5925
▁quí	-5926
▁Ésa	-5927
bulan	-5928
ganta	-5929
ilóme	-5930
riera	-5931
zados	-5932
▁Aseg	-5933
▁Ense	-5934
▁Fuji	-5935
▁Nací	-5936
▁Trae	-5937
▁aula	-5938
▁bala	-5939
▁busc	-5940
▁cere	-5941
▁daba	-5942
▁iban	-5943
▁iden	-5944
▁jazz	-5945
▁mías	-5946
▁rock	-5947
▁sole	-5948
▁trán	-5949
tantes	-5950
▁adora	-5951
▁bello	-5952
▁besar	-5953
▁borde	-5954
▁cabra	-5955
▁china	-5956
▁coser	-5957
▁datos	-5958
▁líder	-5959
▁patio	-5960
▁refri	-5961
▁román	-5962
▁señal	-5963
▁vayan	-5964
gámoslo	-5965
stituto	-5966
▁Tenéis	-5967
▁aparte	-5968
▁apropi	-5969
▁confir	-5970
▁crimin	-5971
▁cumpli	-5972
▁descar	-5973
▁desocu	-5974
▁echado	-5975
▁firmar	-5976
▁física	-5977
▁hierro	-5978
▁humano	-5979
▁instru	-5980
▁resist	-5981
▁sosten	-5982
▁batalla	-5983
▁casarte	-5984
▁cobarde	-5985
▁comunic	-5986
▁decirlo	-5987
▁dejaron	-5988
▁descubi	-5989
▁mentido	-5990
▁preparó	-5991
▁propios	-5992
▁regular	-5993
▁seguida	-5994
▁trataba	-5995
Necesitas	-5996
ilómetros	-5997
▁Deberían	-5998
▁ciudades	-5999
▁clientes	-6000
▁cubierto	-6001
▁ensalada	-6002
▁escondió	-6003
▁extraord	-6004
▁gasolina	-6005
▁incómodo	-6006
▁llegamos	-6007
▁llegaste	-6008
▁opciones	-6009
▁peleando	-6010
▁tránsito	-6011
▁Cualquier	-6012
▁Deberíais	-6013
▁alimentos	-6014
▁colectivo	-6015
▁escondido	-6016
▁estudiado	-6017
▁fijamente	-6018
▁mostrarte	-6019
▁reconoció	-6020
▁recuerdas	-6021
▁trabajaba	-6022
▁adelantado	-6023
▁apariencia	-6024
▁bienvenido	-6025
▁científico	-6026
▁contraseña	-6027
▁documentos	-6028
▁secundaria	-6029
▁seriamente	-6030
▁zanahorias	-6031
▁acostumbrada	-6032
▁dificultades	-6033
▁Afortunadamente	-6034
ni	-6035
ché	-6036
dap	-6037
pin	-6038
pto	-6039
ria	-6040
íde	-6041
▁TV	-6042
▁Us	-6043
ampi	-6044
aria	-6045
mida	-6046
oler	-6047
▁Col	-6048
▁Exi	-6049
▁fan	-6050
▁feo	-6051
▁jab	-6052
▁sar	-6053
▁zan	-6054
▁ése	-6055
mania	-6056
pción	-6057
sequi	-6058
▁Enci	-6059
▁chil	-6060
▁clás	-6061
▁empu	-6062
▁gast	-6063
▁humi	-6064
▁humo	-6065
▁libr	-6066
▁limi	-6067
▁mare	-6068
▁mezc	-6069
▁pesa	-6070
▁seré	-6071
▁uvas	-6072
▁zona	-6073
Pueden	-6074
ecemos	-6075
▁Inter	-6076
▁Llegó	-6077
▁Quien	-6078
▁Sobre	-6079
▁acusó	-6080
▁barba	-6081
▁captu	-6082
▁celos	-6083
▁colgó	-6084
▁creas	-6085
▁creen	-6086
▁destr	-6087
▁diera	-6088
▁estro	-6089
▁expli	-6090
▁exten	-6091
▁extin	-6092
▁harás	-6093
▁imper	-6094
▁marca	-6095
▁oírte	-6096
▁pasan	-6097
▁pasto	-6098
▁persi	-6099
▁persu	-6100
▁podré	-6101
▁queja	-6102
▁serás	-6103
▁toque	-6104
Quiénes	-6105
guiendo	-6106
▁Brasil	-6107
▁Llovió	-6108
▁Pueden	-6109
▁Veamos	-6110
▁acabas	-6111
▁alguno	-6112
▁bromas	-6113
▁calles	-6114
▁confía	-6115
▁enviar	-6116
▁escapó	-6117
▁explos	-6118
▁juegos	-6119
▁océano	-6120
▁orejas	-6121
▁planta	-6122
▁sentar	-6123
▁siesta	-6124
▁sombra	-6125
▁terror	-6126
▁trenes	-6127
inamente	-6128
▁Pasamos	-6129
▁aliento	-6130
▁ambulan	-6131
▁demostr	-6132
▁elegido	-6133
▁escucho	-6134
▁gemelos	-6135
▁hacerle	-6136
▁imaginé	-6137
▁inclinó	-6138
▁indepen	-6139
▁intenta	-6140
▁levanto	-6141
▁llegara	-6142
▁lloverá	-6143
▁pedirte	-6144
▁poquito	-6145
▁pruebas	-6146
▁rodilla	-6147
▁telefón	-6148
▁órdenes	-6149
▁Alemania	-6150
▁Hablemos	-6151
▁Mantente	-6152
▁Nuestros	-6153
▁alquiler	-6154
▁atrasado	-6155
▁ayudaría	-6156
▁desesper	-6157
▁desperdi	-6158
▁ejército	-6159
▁empleado	-6160
▁estanque	-6161
▁garganta	-6162
▁imaginar	-6163
▁llegaría	-6164
▁mantiene	-6165
▁muriendo	-6166
▁perfecta	-6167
▁posición	-6168
▁sentados	-6169
▁sentarse	-6170
▁utilizar	-6171
▁agradecer	-6172
▁agradezco	-6173
▁cafetería	-6174
▁cocinando	-6175
▁comprarle	-6176
▁construir	-6177
▁continuar	-6178
▁contratar	-6179
▁disfrutar	-6180
▁muchísimo	-6181
▁necesites	-6182
▁profesion	-6183
▁encantaría	-6184
▁kilómetros	-6185
▁electrónico	-6186
▁emocionante	-6187
▁encontraron	-6188
▁estadounidense	-6189
Vi	-6190
hu	-6191
dme	-6192
iga	-6193
ilo	-6194
▁Bi	-6195
▁Ca	-6196
▁Lu	-6197
▁ge	-6198
▁vá	-6199
aras	-6200
icia	-6201
irme	-6202
poca	-6203
ríbe	-6204
uida	-6205
vada	-6206
vide	-6207
▁Leí	-6208
▁Sen	-6209
▁cae	-6210
▁cés	-6211
▁dañ	-6212
▁ine	-6213
▁ree	-6214
▁sub	-6215
▁zoo	-6216
▁Ése	-6217
amelo	-6218
cemos	-6219
darse	-6220
giero	-6221
omici	-6222
queza	-6223
rando	-6224
taban	-6225
usias	-6226
yeron	-6227
▁Adiv	-6228
▁Apar	-6229
▁adap	-6230
▁apel	-6231
▁bast	-6232
▁cero	-6233
▁diab	-6234
▁echo	-6235
▁gane	-6236
▁león	-6237
▁méto	-6238
▁saca	-6239
▁sube	-6240
▁supe	-6241
▁vano	-6242
▁zumo	-6243
tencia	-6244
áramos	-6245
▁Murió	-6246
▁alivi	-6247
▁aplau	-6248
▁avent	-6249
▁calvo	-6250
▁cedió	-6251
▁cruzó	-6252
▁dueño	-6253
▁escas	-6254
▁esquí	-6255
▁fasti	-6256
▁grano	-6257
▁junio	-6258
▁llenó	-6259
▁mandó	-6260
▁negar	-6261
▁obvio	-6262
▁pinta	-6263
▁pizar	-6264
▁refle	-6265
▁rojas	-6266
▁sangr	-6267
▁senté	-6268
▁sordo	-6269
▁tipos	-6270
▁valla	-6271
▁video	-6272
▁viera	-6273
▁volví	-6274
▁época	-6275
▁Ningún	-6276
▁Quiere	-6277
▁atrapó	-6278
▁coinci	-6279
▁compla	-6280
▁coraje	-6281
▁creció	-6282
▁cristi	-6283
▁césped	-6284
▁enfadó	-6285
▁excusa	-6286
▁gastos	-6287
▁grados	-6288
▁misión	-6289
▁normas	-6290
▁origin	-6291
▁pesada	-6292
▁piloto	-6293
▁sucede	-6294
▁talent	-6295
▁tomará	-6296
▁Vivimos	-6297
▁callado	-6298
▁condujo	-6299
▁dejaría	-6300
▁estalló	-6301
▁horario	-6302
▁inesper	-6303
▁llegues	-6304
▁llevaré	-6305
▁obsequi	-6306
▁ocasión	-6307
▁picante	-6308
▁precipi	-6309
▁recogió	-6310
tualmente	-6311
▁Llegamos	-6312
▁adecuado	-6313
▁amarilla	-6314
▁amarillo	-6315
▁aprendió	-6316
▁contener	-6317
▁entusias	-6318
▁estacion	-6319
▁extraños	-6320
▁familiar	-6321
▁infancia	-6322
▁llevarme	-6323
▁parecido	-6324
▁político	-6325
▁producto	-6326
▁quebrado	-6327
▁quejando	-6328
▁refriger	-6329
▁tengamos	-6330
▁Tendremos	-6331
▁asesinado	-6332
▁brillante	-6333
▁conocerte	-6334
▁despierta	-6335
▁empezaron	-6336
▁entiendes	-6337
▁evidencia	-6338
▁incidente	-6339
▁instituto	-6340
▁naturales	-6341
▁perdiendo	-6342
▁preferida	-6343
▁prefieres	-6344
▁quedarnos	-6345
▁reconocer	-6346
▁sensación	-6347
▁tendremos	-6348
▁amabilidad	-6349
▁ambulancia	-6350
▁confundido	-6351
▁decisiones	-6352
▁explicarlo	-6353
▁formulario	-6354
▁mutuamente	-6355
▁permanecer	-6356
▁voluntario	-6357
▁atentamente	-6358
▁cigarrillos	-6359
▁considerado	-6360
▁experimento	-6361
▁helicóptero	-6362
▁especialmente	-6363
▁investigación	-6364
Ay	-6365
sf	-6366
xo	-6367
cén	-6368
lei	-6369
neo	-6370
pio	-6371
teó	-6372
umb	-6373
úme	-6374
días	-6375
tara	-6376
tari	-6377
▁Cal	-6378
▁Lee	-6379
▁Nad	-6380
▁San	-6381
▁Tar	-6382
▁amp	-6383
▁dia	-6384
▁lam	-6385
▁láp	-6386
▁ove	-6387
Todos	-6388
curso	-6389
drían	-6390
ficos	-6391
izado	-6392
semos	-6393
temos	-6394
tidos	-6395
zaste	-6396
ánico	-6397
▁Apre	-6398
▁Dejó	-6399
▁Tras	-6400
▁Tuvo	-6401
▁Vive	-6402
▁ambi	-6403
▁choc	-6404
▁dama	-6405
▁dará	-6406
▁egoí	-6407
▁emba	-6408
▁flui	-6409
▁húme	-6410
▁movi	-6411
▁muro	-6412
▁pala	-6413
▁past	-6414
▁rece	-6415
▁tene	-6416
Habéis	-6417
aranti	-6418
ección	-6419
leibol	-6420
tróleo	-6421
táculo	-6422
▁Hablé	-6423
▁concl	-6424
▁costa	-6425
▁durar	-6426
▁estad	-6427
▁lados	-6428
▁muere	-6429
▁quisi	-6430
▁sabés	-6431
▁sonrí	-6432
▁sushi	-6433
▁tinta	-6434
▁tinto	-6435
▁torre	-6436
▁vacas	-6437
▁venía	-6438
▁Déjalo	-6439
▁Dígame	-6440
▁Seguro	-6441
▁acondi	-6442
▁adulto	-6443
▁asombr	-6444
▁conten	-6445
▁estorn	-6446
▁hundió	-6447
▁litera	-6448
▁modelo	-6449
▁muerta	-6450
▁navide	-6451
▁obtuvo	-6452
▁optimi	-6453
▁pasaba	-6454
▁pasara	-6455
▁planea	-6456
▁quitar	-6457
▁rostro	-6458
▁seguía	-6459
piración	-6460
tamiento	-6461
▁Cuidado	-6462
▁Hicimos	-6463
▁Imagino	-6464
▁Primero	-6465
▁acostar	-6466
▁adultos	-6467
▁aprende	-6468
▁cambios	-6469
▁campana	-6470
▁casarme	-6471
▁entregó	-6472
▁estampi	-6473
▁estrope	-6474
▁estudió	-6475
▁experto	-6476
▁gallina	-6477
▁gustará	-6478
▁llamaba	-6479
▁lugares	-6480
▁lápices	-6481
▁mejilla	-6482
▁mostrar	-6483
▁médicos	-6484
▁quedaba	-6485
▁reserva	-6486
▁soporto	-6487
Recuerdas	-6488
▁advirtió	-6489
▁agradeci	-6490
▁almohada	-6491
▁cuarenta	-6492
▁desierto	-6493
▁disculpa	-6494
▁familias	-6495
▁hablamos	-6496
▁martillo	-6497
▁obligado	-6498
▁olvidaré	-6499
▁petróleo	-6500
▁salieron	-6501
▁voluntad	-6502
▁volvería	-6503
▁Asegúrate	-6504
▁autoridad	-6505
▁ciudadano	-6506
▁comprarme	-6507
▁deprimido	-6508
▁divertida	-6509
▁explosión	-6510
▁inocencia	-6511
▁izquierdo	-6512
▁sonriendo	-6513
▁temporada	-6514
▁embarazada	-6515
▁emocionado	-6516
▁interesada	-6517
▁observando	-6518
▁periódicos	-6519
▁serpientes	-6520
▁capacidades	-6521
▁desapareció	-6522
▁espectáculo	-6523
▁preocupados	-6524
▁refrigerador	-6525
▁cuidadosamente	-6526
Ll	-6527
só	-6528
Los	-6529
Ves	-6530
cam	-6531
mes	-6532
más	-6533
ume	-6534
ván	-6535
íes	-6536
▁Lá	-6537
fica	-6538
ines	-6539
irse	-6540
pera	-6541
plic	-6542
plom	-6543
quen	-6544
tano	-6545
umar	-6546
zaba	-6547
▁Mon	-6548
▁Vos	-6549
▁act	-6550
▁ató	-6551
▁inm	-6552
▁joy	-6553
▁loc	-6554
▁oso	-6555
▁var	-6556
Habla	-6557
daron	-6558
dores	-6559
frica	-6560
garse	-6561
ieron	-6562
quero	-6563
stica	-6564
terre	-6565
yendo	-6566
ómate	-6567
▁Deme	-6568
▁Desc	-6569
▁Hizo	-6570
▁Sabe	-6571
▁amas	-6572
▁arra	-6573
▁atre	-6574
▁conc	-6575
▁cubo	-6576
▁cura	-6577
▁exám	-6578
▁gras	-6579
▁impe	-6580
▁lavó	-6581
▁locu	-6582
▁lujo	-6583
▁magn	-6584
▁mila	-6585
▁neum	-6586
▁pago	-6587
▁pavo	-6588
▁refu	-6589
▁test	-6590
▁ésta	-6591
ancias	-6592
currió	-6593
ionado	-6594
respon	-6595
riendo	-6596
tición	-6597
tillas	-6598
ulares	-6599
▁Empie	-6600
▁Llama	-6601
▁Suena	-6602
▁abril	-6603
▁calcu	-6604
▁camar	-6605
▁caído	-6606
▁conec	-6607
▁conté	-6608
▁cueva	-6609
▁cuida	-6610
▁gorda	-6611
▁impac	-6612
▁inten	-6613
▁jabón	-6614
▁lento	-6615
▁mires	-6616
▁pagan	-6617
▁posee	-6618
▁quejó	-6619
▁quemó	-6620
▁toler	-6621
▁tradi	-6622
▁tuyos	-6623
▁usado	-6624
▁vecin	-6625
▁villa	-6626
▁éstas	-6627
Ustedes	-6628
olución	-6629
▁Conocí	-6630
▁Empezó	-6631
▁Prueba	-6632
▁Sencil	-6633
▁Tendré	-6634
▁acorde	-6635
▁ayudes	-6636
▁camina	-6637
▁cierre	-6638
▁conser	-6639
▁frutas	-6640
▁ignoró	-6641
▁lament	-6642
▁leerlo	-6643
▁libres	-6644
▁llegas	-6645
▁marchó	-6646
▁metros	-6647
▁millón	-6648
▁pierde	-6649
▁pintor	-6650
▁pobres	-6651
▁propor	-6652
▁riendo	-6653
▁rápida	-6654
▁salgas	-6655
▁sanguí	-6656
▁sellos	-6657
▁traído	-6658
▁vengan	-6659
▁Bienven	-6660
▁acuerda	-6661
▁alcanzó	-6662
▁antigua	-6663
▁aparcar	-6664
▁asesino	-6665
▁atrapar	-6666
▁ayudado	-6667
▁comidas	-6668
▁cosecha	-6669
▁disgust	-6670
▁educado	-6671
▁influen	-6672
▁juguete	-6673
▁materna	-6674
▁parcial	-6675
▁ponerle	-6676
▁program	-6677
▁páginas	-6678
▁quiénes	-6679
▁reducir	-6680
ariamente	-6681
ticamente	-6682
▁Aprender	-6683
▁Hablamos	-6684
▁Teníamos	-6685
▁apellido	-6686
▁botellas	-6687
▁contarte	-6688
▁entradas	-6689
▁momentos	-6690
▁recursos	-6691
▁resultar	-6692
▁satisfac	-6693
entimiento	-6694
▁compañero	-6695
▁muchachos	-6696
▁pretendía	-6697
▁sorprende	-6698
▁comentario	-6699
▁encuentras	-6700
▁comentarios	-6701
▁despertador	-6702
▁encontrarte	-6703
▁extranjeras	-6704
▁habilidades	-6705
▁imaginación	-6706
▁involucrado	-6707
▁preguntarte	-6708
▁malentendido	-6709
▁Sencillamente	-6710
▁acostumbrarse	-6711
Eh	-6712
dá	-6713
sí	-6714
Sal	-6715
amo	-6716
ate	-6717
cié	-6718
cra	-6719
omi	-6720
▁Or	-6721
Pero	-6722
anda	-6723
ficó	-6724
mpla	-6725
ojos	-6726
tora	-6727
usia	-6728
▁Ali	-6729
▁Gen	-6730
▁Via	-6731
▁abe	-6732
▁cad	-6733
▁eli	-6734
▁env	-6735
▁leo	-6736
▁sop	-6737
Vamos	-6738
adero	-6739
ciona	-6740
dante	-6741
ferir	-6742
intió	-6743
junto	-6744
quite	-6745
tadas	-6746
tinas	-6747
tivas	-6748
uicio	-6749
venta	-6750
▁Limp	-6751
▁Sali	-6752
▁Sigo	-6753
▁Tome	-6754
▁aten	-6755
▁cuyo	-6756
▁dirá	-6757
▁nací	-6758
▁reac	-6759
▁saxo	-6760
▁seca	-6761
▁vais	-6762
▁veas	-6763
ciedad	-6764
ciocho	-6765
dición	-6766
onario	-6767
terías	-6768
▁Agrad	-6769
▁Algún	-6770
▁Dejar	-6771
▁Haría	-6772
▁Levan	-6773
▁Venid	-6774
▁atrap	-6775
▁ayudé	-6776
▁carga	-6777
▁crecí	-6778
▁derri	-6779
▁digan	-6780
▁engor	-6781
▁ensay	-6782
▁finan	-6783
▁hijas	-6784
▁jaula	-6785
▁lanzó	-6786
▁malos	-6787
▁music	-6788
▁pluma	-6789
▁semáf	-6790
▁tarda	-6791
▁temer	-6792
▁terri	-6793
▁tifón	-6794
▁tomas	-6795
▁tortu	-6796
▁vasos	-6797
▁vitam	-6798
▁vivos	-6799
▁zanja	-6800
▁zorro	-6801
ticular	-6802
▁aceite	-6803
▁actual	-6804
▁arañas	-6805
▁arrojó	-6806
▁cheque	-6807
▁cogido	-6808
▁compre	-6809
▁consum	-6810
▁dedicó	-6811
▁duermo	-6812
▁exitos	-6813
▁fuente	-6814
▁honest	-6815
▁huelga	-6816
▁insist	-6817
▁jugaba	-6818
▁metido	-6819
▁miraba	-6820
▁moneda	-6821
▁mordió	-6822
▁método	-6823
▁oscura	-6824
▁pálido	-6825
▁repres	-6826
▁subido	-6827
▁suceda	-6828
▁visité	-6829
▁Mundial	-6830
▁ahorros	-6831
▁aprendí	-6832
▁arquite	-6833
▁cliente	-6834
▁confuso	-6835
▁contagi	-6836
▁costará	-6837
▁desarro	-6838
▁egoísta	-6839
▁fuerzas	-6840
▁garanti	-6841
▁incendi	-6842
▁lamento	-6843
▁logrado	-6844
▁melodía	-6845
▁oficial	-6846
▁oración	-6847
▁pizarra	-6848
▁ponerlo	-6849
▁prepara	-6850
▁presión	-6851
▁privado	-6852
▁regrese	-6853
▁retrasó	-6854
▁sonando	-6855
▁tomaron	-6856
▁Enséñame	-6857
▁Juguemos	-6858
▁anteojos	-6859
▁asientos	-6860
▁ayudando	-6861
▁bailando	-6862
▁encender	-6863
▁estudias	-6864
▁exhausto	-6865
▁exámenes	-6866
▁fantasma	-6867
▁involucr	-6868
▁llevarse	-6869
▁molestar	-6870
▁pequeñas	-6871
▁perdonar	-6872
▁planeado	-6873
▁preciosa	-6874
▁prefiero	-6875
▁querrías	-6876
▁resuelto	-6877
▁secretos	-6878
▁sensible	-6879
▁subiendo	-6880
▁suminist	-6881
▁trabajan	-6882
▁trabajos	-6883
▁vegetari	-6884
terrestres	-6885
▁americano	-6886
▁comprarse	-6887
▁perdieron	-6888
▁permitido	-6889
▁pronuncia	-6890
▁reuniones	-6891
▁cigarrillo	-6892
▁estantería	-6893
▁estuvieron	-6894
▁particular	-6895
▁reputación	-6896
▁vecindario	-6897
▁discutiendo	-6898
▁trescientos	-6899
▁habitaciones	-6900
▁herramientas	-6901
▁impresionado	-6902
▁instrucciones	-6903
▁personalmente	-6904
▁extraterrestres	-6905
01	-6906
Ah	-6907
In	-6908
Soy	-6909
cta	-6910
esp	-6911
tér	-6912
xíg	-6913
▁"¡	-6914
▁Go	-6915
Pens	-6916
cipe	-6917
edad	-6918
erse	-6919
gaba	-6920
irma	-6921
nimo	-6922
quél	-6923
tulo	-6924
udar	-6925
udas	-6926
vale	-6927
vino	-6928
▁Cen	-6929
▁Lim	-6930
▁Lin	-6931
▁Vis	-6932
▁dob	-6933
▁pij	-6934
Ellos	-6935
Enten	-6936
ament	-6937
cimos	-6938
entir	-6939
lista	-6940
meros	-6941
prete	-6942
tribu	-6943
uelen	-6944
uiste	-6945
visto	-6946
▁Allí	-6947
▁Deje	-6948
▁Déje	-6949
▁Hola	-6950
▁Pase	-6951
▁Roma	-6952
▁Sost	-6953
▁abro	-6954
▁aves	-6955
▁dame	-6956
▁disp	-6957
▁echa	-6958
▁espa	-6959
▁fron	-6960
▁gara	-6961
▁irre	-6962
▁mudó	-6963
▁osos	-6964
▁oxíg	-6965
▁pido	-6966
▁pozo	-6967
▁rell	-6968
▁salí	-6969
▁usan	-6970
▁ánge	-6971
burgue	-6972
dación	-6973
dillas	-6974
rantes	-6975
árselo	-6976
éndolo	-6977
éndose	-6978
érmelo	-6979
▁Almor	-6980
▁Busco	-6981
▁Cambi	-6982
▁Entra	-6983
▁Entré	-6984
▁Fumar	-6985
▁Habrá	-6986
▁Pocos	-6987
▁apoyó	-6988
▁cazar	-6989
▁clara	-6990
▁darse	-6991
▁desea	-6992
▁deuda	-6993
▁diagn	-6994
▁helad	-6995
▁inclu	-6996
▁lobos	-6997
▁lucía	-6998
▁metas	-6999
▁muero	-7000
▁ocupa	-7001
▁oeste	-7002
▁pasas	-7003
▁revés	-7004
▁rojos	-7005
▁sabrá	-7006
▁sucia	-7007
▁talla	-7008
▁tazas	-7009
▁telef	-7010
▁veros	-7011
▁vídeo	-7012
▁Éstos	-7013
Tenemos	-7014
téntalo	-7015
▁Piensa	-7016
▁Tómate	-7017
▁alegre	-7018
▁barrio	-7019
▁britán	-7020
▁calent	-7021
▁caminó	-7022
▁ciervo	-7023
▁duelen	-7024
▁eligió	-7025
▁engañó	-7026
▁enojar	-7027
▁existe	-7028
▁gustar	-7029
▁harina	-7030
▁homici	-7031
▁ligero	-7032
▁límite	-7033
▁miente	-7034
▁odiaba	-7035
▁opinas	-7036
▁piense	-7037
▁public	-7038
▁quedas	-7039
▁quizás	-7040
▁recibí	-7041
▁saludó	-7042
▁señora	-7043
▁sótano	-7044
▁timbre	-7045
▁tocaba	-7046
▁vendió	-7047
▁viajes	-7048
▁éramos	-7049
dimiento	-7050
▁Prometo	-7051
▁abuelos	-7052
▁alegría	-7053
▁aprobar	-7054
▁charlar	-7055
▁clásica	-7056
▁combust	-7057
▁compren	-7058
▁conejos	-7059
▁cuántas	-7060
▁decente	-7061
▁dejarlo	-7062
▁enamoró	-7063
▁guardia	-7064
▁lastimó	-7065
▁lección	-7066
▁lotería	-7067
▁miraron	-7068
▁olvidad	-7069
▁oxígeno	-7070
▁papeles	-7071
▁parezca	-7072
▁pasarme	-7073
▁patinar	-7074
▁prendió	-7075
▁prometo	-7076
▁regreso	-7077
▁reporte	-7078
▁soñando	-7079
▁sábados	-7080
▁tijeras	-7081
▁tradujo	-7082
▁vueltas	-7083
▁acordeón	-7084
▁alquilar	-7085
▁caminaba	-7086
▁comieron	-7087
▁concurso	-7088
▁desemple	-7089
▁detenido	-7090
▁distinta	-7091
▁estarías	-7092
▁habitual	-7093
▁insectos	-7094
▁interpre	-7095
▁juguetes	-7096
▁lavadora	-7097
▁librería	-7098
▁maquilla	-7099
▁necesite	-7100
▁nerviosa	-7101
▁obsequio	-7102
▁pidieron	-7103
▁prefiere	-7104
▁práctica	-7105
▁pudieron	-7106
▁quejarse	-7107
▁religión	-7108
▁revistas	-7109
▁sentamos	-7110
▁sociedad	-7111
▁turistas	-7112
▁universo	-7113
▁voleibol	-7114
▁comenzado	-7115
▁corriente	-7116
▁decírselo	-7117
▁dieciocho	-7118
▁elefantes	-7119
▁estúpidas	-7120
▁hamburgue	-7121
▁invitaron	-7122
▁mostrarme	-7123
▁políticos	-7124
▁siguiendo	-7125
▁almorzando	-7126
▁bienvenida	-7127
▁enamorados	-7128
▁honestidad	-7129
▁incorrecto	-7130
▁solucionar	-7131
▁descubierto	-7132
▁disculparme	-7133
▁conocimiento	-7134
▁acondicionado	-7135
▁frecuentemente	-7136
íz	-7137
Ese	-7138
Lle	-7139
ben	-7140
eré	-7141
gen	-7142
ias	-7143
ima	-7144
iré	-7145
mis	-7146
ney	-7147
sia	-7148
yas	-7149
▁pó	-7150
arán	-7151
bate	-7152
bete	-7153
blia	-7154
cesa	-7155
dese	-7156
erdo	-7157
etho	-7158
llan	-7159
mada	-7160
ompe	-7161
quía	-7162
zaje	-7163
▁Cru	-7164
▁Gre	-7165
▁Imp	-7166
▁Rep	-7167
▁Sír	-7168
▁ben	-7169
▁cau	-7170
▁gim	-7171
▁pus	-7172
▁rab	-7173
▁rio	-7174
▁sín	-7175
Conoc	-7176
Sabés	-7177
caron	-7178
copio	-7179
daban	-7180
strum	-7181
tuoso	-7182
tátil	-7183
uegos	-7184
vante	-7185
venir	-7186
ídele	-7187
▁Abrí	-7188
▁Baja	-7189
▁Clar	-7190
▁Dorm	-7191
▁Esco	-7192
▁Fuer	-7193
▁Salí	-7194
▁Vino	-7195
▁apuñ	-7196
▁bene	-7197
▁bola	-7198
▁chis	-7199
▁creí	-7200
▁cómp	-7201
▁fumo	-7202
▁gram	-7203
▁haci	-7204
▁irri	-7205
▁lata	-7206
▁opon	-7207
▁prín	-7208
▁rana	-7209
▁rogó	-7210
▁secó	-7211
▁simi	-7212
▁sién	-7213
▁tiro	-7214
ración	-7215
ándolo	-7216
ártelo	-7217
▁Corre	-7218
▁Descu	-7219
▁Dígan	-7220
▁Elige	-7221
▁Entre	-7222
▁Hacer	-7223
▁Justo	-7224
▁Podés	-7225
▁Segun	-7226
▁agres	-7227
▁aguar	-7228
▁agudo	-7229
▁ascen	-7230
▁atacó	-7231
▁calif	-7232
▁cuidó	-7233
▁desan	-7234
▁esfor	-7235
▁explo	-7236
▁gripe	-7237
▁hablé	-7238
▁hayan	-7239
▁hazlo	-7240
▁indis	-7241
▁intér	-7242
▁malga	-7243
▁masco	-7244
▁miser	-7245
▁ofrec	-7246
▁oídos	-7247
▁oírlo	-7248
▁pares	-7249
▁perez	-7250
▁salón	-7251
▁vícti	-7252
ethoven	-7253
▁Biblia	-7254
▁Descan	-7255
▁Espere	-7256
▁Planeo	-7257
▁acción	-7258
▁andaba	-7259
▁apretó	-7260
▁apuntó	-7261
▁collar	-7262
▁desgra	-7263
▁desmay	-7264
▁garaje	-7265
▁gimnas	-7266
▁guarda	-7267
▁indust	-7268
▁juicio	-7269
▁labios	-7270
▁llores	-7271
▁líneas	-7272
▁memori	-7273
▁paliza	-7274
▁podías	-7275
▁porqué	-7276
▁sirvió	-7277
▁actitud	-7278
▁batería	-7279
▁bonitas	-7280
▁cigarro	-7281
▁conozca	-7282
▁cultura	-7283
▁dejarte	-7284
▁detalle	-7285
▁divorci	-7286
▁echarle	-7287
▁emborra	-7288
▁entendí	-7289
▁existen	-7290
▁furioso	-7291
▁impedir	-7292
▁instrum	-7293
▁lectura	-7294
▁llegada	-7295
▁maestra	-7296
▁mundial	-7297
▁muñecas	-7298
▁números	-7299
▁partida	-7300
▁pasaron	-7301
▁pasaste	-7302
▁pienses	-7303
▁probado	-7304
▁propias	-7305
▁resulta	-7306
▁riqueza	-7307
▁robando	-7308
▁sientas	-7309
▁sienten	-7310
▁teclado	-7311
▁tenedor	-7312
▁vencido	-7313
▁vestida	-7314
▁Esperaré	-7315
▁Internet	-7316
▁Limítate	-7317
▁Recuerda	-7318
▁abiertas	-7319
▁aburrida	-7320
▁ancianos	-7321
▁ayudaros	-7322
▁cancelar	-7323
▁cocinera	-7324
▁conseguí	-7325
▁cuaderno	-7326
▁desastre	-7327
▁diagnost	-7328
▁enseñaré	-7329
▁falleció	-7330
▁intercam	-7331
▁llegarás	-7332
▁mencionó	-7333
▁misterio	-7334
▁molestes	-7335
▁portátil	-7336
▁profunda	-7337
▁promedio	-7338
▁príncipe	-7339
▁quejarte	-7340
▁resolvió	-7341
▁semáforo	-7342
▁sucedido	-7343
▁trabajas	-7344
▁triunfar	-7345
▁tuvieras	-7346
▁Beethoven	-7347
▁Estaremos	-7348
▁Hagámoslo	-7349
▁agradeció	-7350
▁arrogante	-7351
▁atractiva	-7352
▁auténtico	-7353
▁condenado	-7354
▁condición	-7355
▁considera	-7356
▁decidiste	-7357
▁describir	-7358
▁encuentre	-7359
▁hicisteis	-7360
▁jugadores	-7361
▁serpiente	-7362
▁superfici	-7363
▁americanos	-7364
▁conocieron	-7365
▁decidieron	-7366
▁diecisiete	-7367
▁empeorando	-7368
▁entrenador	-7369
▁intérprete	-7370
▁maquillaje	-7371
▁periodista	-7372
▁convertirse	-7373
▁divirtiendo	-7374
▁preocuparme	-7375
▁veterinario	-7376
▁adolescentes	-7377
▁construcción	-7378
▁interesantes	-7379
it	-7380
...	-7381
abe	-7382
abr	-7383
cre	-7384
dlo	-7385
dri	-7386
let	-7387
ong	-7388
ovi	-7389
pic	-7390
rán	-7391
tés	-7392
ude	-7393
▁11	-7394
▁Ta	-7395
▁ló	-7396
▁ál	-7397
Hace	-7398
cate	-7399
cera	-7400
dada	-7401
dras	-7402
isis	-7403
mate	-7404
rrir	-7405
táis	-7406
zará	-7407
▁Ade	-7408
▁agi	-7409
▁glo	-7410
▁mam	-7411
▁noc	-7412
▁plá	-7413
▁ríe	-7414
▁típ	-7415
▁usó	-7416
Ahora	-7417
antil	-7418
beros	-7419
carse	-7420
chera	-7421
cidas	-7422
dones	-7423
inada	-7424
mosle	-7425
orado	-7426
terra	-7427
vento	-7428
▁Cuen	-7429
▁Miré	-7430
▁Pero	-7431
▁Prué	-7432
▁acum	-7433
▁astu	-7434
▁came	-7435
▁chir	-7436
▁circ	-7437
▁cobr	-7438
▁copa	-7439
▁dele	-7440
▁fiar	-7441
▁grab	-7442
▁here	-7443
▁mast	-7444
▁máxi	-7445
▁prin	-7446
▁sean	-7447
▁seco	-7448
▁suma	-7449
▁unif	-7450
▁vela	-7451
Estaba	-7452
Fuiste	-7453
Podéis	-7454
Sabéis	-7455
abezas	-7456
fieres	-7457
gnante	-7458
grafía	-7459
tarios	-7460
állate	-7461
▁Alice	-7462
▁Ambas	-7463
▁Depen	-7464
▁Explí	-7465
▁Gener	-7466
▁Hacía	-7467
▁Ingla	-7468
▁Revis	-7469
▁Rusia	-7470
▁Salió	-7471
▁Tradu	-7472
▁Vengo	-7473
▁absor	-7474
▁altas	-7475
▁antig	-7476
▁balde	-7477
▁cajas	-7478
▁clave	-7479
▁coman	-7480
▁comía	-7481
▁dirig	-7482
▁errón	-7483
▁grifo	-7484
▁hormi	-7485
▁intro	-7486
▁monos	-7487
▁norma	-7488
▁oblig	-7489
▁orque	-7490
▁pegar	-7491
▁prede	-7492
▁prést	-7493
▁reina	-7494
▁repro	-7495
▁seria	-7496
▁solar	-7497
▁velas	-7498
▁vidas	-7499
▁ángel	-7500
Gracias	-7501
ización	-7502
stieron	-7503
▁Acepto	-7504
▁Debido	-7505
▁Empecé	-7506
▁Fueron	-7507
▁Pídele	-7508
▁Vuelvo	-7509
▁arrest	-7510
▁atento	-7511
▁ayudas	-7512
▁bancar	-7513
▁biling	-7514
▁bloque	-7515
▁callar	-7516
▁cargar	-7517
▁contam	-7518
▁destru	-7519
▁durará	-7520
▁estilo	-7521
▁estupi	-7522
▁evento	-7523
▁felici	-7524
▁incons	-7525
▁juegan	-7526
▁llaman	-7527
▁locura	-7528
▁maneja	-7529
▁partió	-7530
▁pasaje	-7531
▁podrás	-7532
▁prestó	-7533
▁sujeto	-7534
▁tesoro	-7535
▁tiende	-7536
▁verdes	-7537
cionales	-7538
▁Estabas	-7539
▁Ocurrió	-7540
▁Perdone	-7541
▁Tendrás	-7542
▁aliment	-7543
▁apetito	-7544
▁candida	-7545
▁casaron	-7546
▁confesó	-7547
▁contaré	-7548
▁content	-7549
▁cortina	-7550
▁cuentes	-7551
▁delgado	-7552
▁desmayó	-7553
▁escolar	-7554
▁ganando	-7555
▁gastado	-7556
▁llevara	-7557
▁maletas	-7558
▁musical	-7559
▁paredes	-7560
▁química	-7561
▁sesenta	-7562
▁tomarte	-7563
▁ventaja	-7564
Compraste	-7565
▁Siéntate	-7566
▁Vosotras	-7567
▁acciones	-7568
▁anterior	-7569
▁bomberos	-7570
▁conducta	-7571
▁conjunto	-7572
▁contestó	-7573
▁continuó	-7574
▁cortinas	-7575
▁cuestion	-7576
▁descubri	-7577
▁disculpó	-7578
▁disfruta	-7579
▁elefante	-7580
▁empiezan	-7581
▁entendió	-7582
▁gimnasio	-7583
▁habíamos	-7584
▁heladera	-7585
▁hermosas	-7586
▁insistió	-7587
▁interior	-7588
▁ladrones	-7589
▁parecían	-7590
▁princesa	-7591
▁pudieras	-7592
▁segundos	-7593
▁subestim	-7594
▁traicion	-7595
▁amarillas	-7596
▁comercial	-7597
▁deliciosa	-7598
▁despedida	-7599
▁eléctrica	-7600
▁esperamos	-7601
▁importaba	-7602
▁informado	-7603
▁objetivos	-7604
▁optimista	-7605
▁preparada	-7606
▁recuerdos	-7607
▁solamente	-7608
▁talentoso	-7609
▁terminará	-7610
▁tranquila	-7611
▁vegetales	-7612
▁Inglaterra	-7613
▁asegurarme	-7614
▁escuchaste	-7615
▁estacionar	-7616
▁preferiría	-7617
▁prisionero	-7618
▁repugnante	-7619
▁sobrevivió	-7620
▁sugerencia	-7621
▁científicos	-7622
▁hambrientos	-7623
▁preocuparte	-7624
▁profesional	-7625
▁desaparecido	-7626
▁investigando	-7627
▁consecuencias	-7628
▁independiente	-7629
Di	-7630
Han	-7631
amb	-7632
ash	-7633
bia	-7634
bie	-7635
cid	-7636
cul	-7637
dén	-7638
ecu	-7639
lga	-7640
lín	-7641
íos	-7642
▁iP	-7643
bern	-7644
lete	-7645
logo	-7646
onar	-7647
rosa	-7648
saka	-7649
tase	-7650
ueve	-7651
vame	-7652
▁300	-7653
▁Dev	-7654
▁Sea	-7655
▁cír	-7656
▁nar	-7657
▁oje	-7658
▁viv	-7659
Saben	-7660
abaco	-7661
blado	-7662
cadas	-7663
didad	-7664
gerte	-7665
ibles	-7666
icías	-7667
jados	-7668
ladas	-7669
lenas	-7670
ovilí	-7671
teros	-7672
▁Abra	-7673
▁Agar	-7674
▁Atra	-7675
▁Cost	-7676
▁Juan	-7677
▁Pres	-7678
▁abrí	-7679
▁aler	-7680
▁bici	-7681
▁cana	-7682
▁cica	-7683
▁dimi	-7684
▁duch	-7685
▁enve	-7686
▁guía	-7687
▁jugó	-7688
▁lobo	-7689
▁mari	-7690
▁nega	-7691
▁oper	-7692
▁quej	-7693
▁repi	-7694
▁risa	-7695
▁sacu	-7696
▁seda	-7697
▁soli	-7698
▁torn	-7699
▁tumb	-7700
Entien	-7701
Seguro	-7702
Vienes	-7703
cierto	-7704
grafos	-7705
guimos	-7706
iembre	-7707
▁Apaga	-7708
▁Ayudé	-7709
▁Donde	-7710
▁Falta	-7711
▁Llamé	-7712
▁Osaka	-7713
▁Ponga	-7714
▁casco	-7715
▁cebol	-7716
▁coste	-7717
▁crudo	-7718
▁cuero	-7719
▁culpo	-7720
▁ebrio	-7721
▁entra	-7722
▁firmó	-7723
▁leyes	-7724
▁llora	-7725
▁madru	-7726
▁magia	-7727
▁nieva	-7728
▁pausa	-7729
▁pides	-7730
▁probó	-7731
▁prove	-7732
▁siglo	-7733
▁susur	-7734
▁tales	-7735
▁tonta	-7736
▁veloz	-7737
taremos	-7738
▁Busqué	-7739
▁Perdió	-7740
▁Pásame	-7741
▁adicto	-7742
▁asigna	-7743
▁barata	-7744
▁burlar	-7745
▁carbón	-7746
▁comité	-7747
▁conejo	-7748
▁crecer	-7749
▁descal	-7750
▁dibujo	-7751
▁diplom	-7752
▁espina	-7753
▁fresca	-7754
▁gemelo	-7755
▁habitu	-7756
▁hierba	-7757
▁largos	-7758
▁luchar	-7759
▁martes	-7760
▁mojado	-7761
▁mosqui	-7762
▁médica	-7763
▁mínimo	-7764
▁nación	-7765
▁negros	-7766
▁noctur	-7767
▁pedazo	-7768
▁puedan	-7769
▁pánico	-7770
▁pésimo	-7771
▁recomp	-7772
▁rompec	-7773
▁tabaco	-7774
▁trozos	-7775
▁veneno	-7776
▁viejas	-7777
amientos	-7778
taciones	-7779
▁Abandon	-7780
▁Comimos	-7781
▁Debiste	-7782
▁Desayun	-7783
▁Dijeron	-7784
▁Escriba	-7785
▁Quítate	-7786
▁Segunda	-7787
▁Trabajé	-7788
▁aguanto	-7789
▁ansioso	-7790
▁aprendi	-7791
▁asintió	-7792
▁convers	-7793
▁cumplió	-7794
▁declaró	-7795
▁dejaste	-7796
▁deseaba	-7797
▁escuché	-7798
▁exitoso	-7799
▁fiestas	-7800
▁gatillo	-7801
▁heridas	-7802
▁heridos	-7803
▁idiotas	-7804
▁infeliz	-7805
▁mareado	-7806
▁milagro	-7807
▁moderna	-7808
▁navidad	-7809
▁puestos	-7810
▁pusimos	-7811
▁quedará	-7812
▁riesgos	-7813
▁sincero	-7814
▁sudando	-7815
▁sábanas	-7816
▁trampas	-7817
▁tristes	-7818
▁votaron	-7819
▁Enciende	-7820
▁adivinar	-7821
▁aspirina	-7822
▁aterrori	-7823
▁atravesó	-7824
▁ballenas	-7825
▁benefici	-7826
▁cachorro	-7827
▁cepillar	-7828
▁cruzando	-7829
▁cumplido	-7830
▁desagrad	-7831
▁desorden	-7832
▁desorien	-7833
▁disparar	-7834
▁divorcio	-7835
▁entraron	-7836
▁expresar	-7837
▁funcionó	-7838
▁gustaban	-7839
▁lastimar	-7840
▁lenguaje	-7841
▁material	-7842
▁mensajes	-7843
▁mentiras	-7844
▁original	-7845
▁orquesta	-7846
▁perdimos	-7847
▁policías	-7848
▁previsto	-7849
▁progreso	-7850
▁recuperó	-7851
▁respetar	-7852
▁visitado	-7853
▁volviera	-7854
▁aceptable	-7855
▁compraron	-7856
▁desgracia	-7857
▁diamantes	-7858
▁enseñando	-7859
▁entienden	-7860
▁gramática	-7861
▁mejorando	-7862
▁pesadilla	-7863
▁populares	-7864
▁romántico	-7865
▁semejante	-7866
▁traicionó	-7867
▁aumentando	-7868
▁automovilí	-7869
▁bolígrafos	-7870
▁comúnmente	-7871
▁conseguido	-7872
▁considerar	-7873
▁construido	-7874
▁convertido	-7875
▁demasiados	-7876
▁encuentres	-7877
▁entenderlo	-7878
▁incorrecta	-7879
▁molestando	-7880
▁suicidarse	-7881
▁terremotos	-7882
▁agradecerte	-7883
▁encontrarás	-7884
▁practicando	-7885
▁tratamiento	-7886
▁Generalmente	-7887
▁continuación	-7888
▁directamente	-7889
▁inconsciente	-7890
▁rompecabezas	-7891
▁diagnosticado	-7892
▁increíblemente	-7893
▁repentinamente	-7894
cn	-7895
ud	-7896
vé	-7897
ñé	-7898
bal	-7899
bum	-7900
fir	-7901
got	-7902
gur	-7903
jad	-7904
ose	-7905
sul	-7906
tui	-7907
▁Af	-7908
▁Añ	-7909
▁Ce	-7910
▁Fa	-7911
▁Há	-7912
▁Oh	-7913
▁bl	-7914
▁dí	-7915
▁ub	-7916
coln	-7917
dían	-7918
gate	-7919
imen	-7920
ionó	-7921
irte	-7922
lena	-7923
orre	-7924
rete	-7925
risa	-7926
tern	-7927
tete	-7928
unst	-7929
uérf	-7930
▁	-7931
e	-7932
a	-7933
o	-7934
s	-7935
r	-7936
n	-7937
i	-7938
l	-7939
u	-7940
t	-7941
d	-7942
m	-7943
c	-7944
.	-7945
p	-7946
b	-7947
q	-7948
v	-7949
g	-7950
h	-7951
T	-7952
í	-7953
y	-7954
ó	-7955
á	-7956
é	-7957
E	-7958
f	-7959
?	-7960
¿	-7961
j	-7962
N	-7963
M	-7964
z	-7965
L	-7966
,	-7967
P	-7968
S	-7969
ñ	-7970
C	-7971
A	-7972
Q	-7973
D	-7974
É	-7975
ú	-7976
H	-7977
x	-7978
Y	-7979
V	-7980
U	-7981
!	-7982
¡	-7983
B	-7984
"	-7985
J	-7986
F	-7987
O	-7988
R	-7989
0	-7990
I	-7991
k	-7992
G	-7993
1	-7994
3	-7995
